{"\u0001": 0, "\u0003": 1, "\u0004": 2, "\b": 3, "\t": 4, "\n": 5, "\f": 6, "\r": 7, "\u000e": 8, "\u000f": 9, "\u0013": 10, "\u0017": 11, "\u001b": 12, "\u001f": 13, " ": 14, "!": 15, "\"": 16, "#": 17, "$": 18, "%": 19, "&": 20, "'": 21, "(": 22, ")": 23, "*": 24, "+": 25, ",": 26, "-": 27, ".": 28, "/": 29, "0": 30, "1": 31, "2": 32, "3": 33, "4": 34, "5": 35, "6": 36, "7": 37, "8": 38, "9": 39, ":": 40, ";": 41, "<": 42, "=": 43, ">": 44, "?": 45, "@": 46, "A": 47, "B": 48, "C": 49, "D": 50, "E": 51, "F": 52, "G": 53, "H": 54, "I": 55, "J": 56, "K": 57, "L": 58, "M": 59, "N": 60, "O": 61, "P": 62, "Q": 63, "R": 64, "S": 65, "T": 66, "U": 67, "V": 68, "W": 69, "X": 70, "Y": 71, "Z": 72, "[": 73, "\\": 74, "]": 75, "^": 76, "_": 77, "`": 78, "a": 79, "b": 80, "c": 81, "d": 82, "e": 83, "f": 84, "g": 85, "h": 86, "i": 87, "j": 88, "k": 89, "l": 90, "m": 91, "n": 92, "o": 93, "p": 94, "q": 95, "r": 96, "s": 97, "t": 98, "u": 99, "v": 100, "w": 101, "x": 102, "y": 103, "z": 104, "{": 105, "|": 106, "}": 107, "~": 108, "\u007f": 109, "\u0080": 110, "\u0081": 111, "\u0082": 112, "\u0083": 113, "\u0084": 114, "\u0085": 115, "\u0086": 116, "\u0087": 117, "\u0088": 118, "\u0089": 119, "\u008a": 120, "\u008b": 121, "\u008c": 122, "\u008d": 123, "\u008e": 124, "\u008f": 125, "\u0090": 126, "\u0091": 127, "\u0092": 128, "\u0093": 129, "\u0094": 130, "\u0095": 131, "\u0096": 132, "\u0097": 133, "\u0098": 134, "\u0099": 135, "\u009a": 136, "\u009b": 137, "\u009c": 138, "\u009d": 139, "\u009e": 140, "\u009f": 141, "\u00a0": 142, "\u00a1": 143, "\u00a2": 144, "\u00a3": 145, "\u00a4": 146, "\u00a5": 147, "\u00a6": 148, "\u00a7": 149, "\u00a8": 150, "\u00a9": 151, "\u00aa": 152, "\u00ab": 153, "\u00ac": 154, "\u00ad": 155, "\u00ae": 156, "\u00af": 157, "\u00b0": 158, "\u00b1": 159, "\u00b2": 160, "\u00b3": 161, "\u00b4": 162, "\u00b5": 163, "\u00b6": 164, "\u00b7": 165, "\u00b8": 166, "\u00b9": 167, "\u00ba": 168, "\u00bb": 169, "\u00bc": 170, "\u00bd": 171, "\u00be": 172, "\u00bf": 173, "\u00c0": 174, "\u00c1": 175, "\u00c2": 176, "\u00c3": 177, "\u00c4": 178, "\u00c5": 179, "\u00c6": 180, "\u00c7": 181, "\u00c8": 182, "\u00c9": 183, "\u00ca": 184, "\u00cb": 185, "\u00cc": 186, "\u00cd": 187, "\u00ce": 188, "\u00cf": 189, "\u00d0": 190, "\u00d1": 191, "\u00d2": 192, "\u00d3": 193, "\u00d4": 194, "\u00d5": 195, "\u00d6": 196, "\u00d7": 197, "\u00d8": 198, "\u00d9": 199, "\u00da": 200, "\u00db": 201, "\u00dc": 202, "\u00dd": 203, "\u00de": 204, "\u00df": 205, "\u00e0": 206, "\u00e1": 207, "\u00e2": 208, "\u00e3": 209, "\u00e4": 210, "\u00e5": 211, "\u00e6": 212, "\u00e7": 213, "\u00e8": 214, "\u00e9": 215, "\u00ea": 216, "\u00eb": 217, "\u00ec": 218, "\u00ed": 219, "\u00ee": 220, "\u00ef": 221, "\u00f0": 222, "\u00f1": 223, "\u00f2": 224, "\u00f3": 225, "\u00f4": 226, "\u00f5": 227, "\u00f6": 228, "\u00f7": 229, "\u00f8": 230, "\u00f9": 231, "\u00fa": 232, "\u00fb": 233, "\u00fc": 234, "\u00fd": 235, "\u00fe": 236, "\u00ff": 237, "\u0100": 238, "\u0101": 239, "\u0102": 240, "\u0103": 241, "\u0104": 242, "\u0105": 243, "\u0106": 244, "\u0107": 245, "\u0108": 246, "\u0109": 247, "\u010a": 248, "\u010b": 249, "\u010c": 250, "\u010d": 251, "\u010e": 252, "\u010f": 253, "\u0110": 254, "\u0111": 255, "\u0112": 256, "\u0113": 257, "\u0114": 258, "\u0115": 259, "\u0116": 260, "\u0117": 261, "\u0118": 262, "\u0119": 263, "\u011a": 264, "\u011b": 265, "\u011c": 266, "\u011d": 267, "\u011e": 268, "\u011f": 269, "\u0120": 270, "\u0121": 271, "\u0122": 272, "\u0123": 273, "\u0124": 274, "\u0125": 275, "\u0126": 276, "\u0127": 277, "\u0128": 278, "\u0129": 279, "\u012a": 280, "\u012b": 281, "\u012c": 282, "\u012d": 283, "\u012e": 284, "\u012f": 285, "\u0130": 286, "\u0131": 287, "\u0132": 288, "\u0133": 289, "\u0134": 290, "\u0135": 291, "\u0136": 292, "\u0137": 293, "\u0138": 294, "\u0139": 295, "\u013a": 296, "\u013b": 297, "\u013c": 298, "\u013d": 299, "\u013e": 300, "\u013f": 301, "\u0140": 302, "\u0141": 303, "\u0142": 304, "\u0143": 305, "\u0144": 306, "\u0145": 307, "\u0146": 308, "\u0147": 309, "\u0148": 310, "\u0149": 311, "\u014a": 312, "\u014b": 313, "\u014c": 314, "\u014d": 315, "\u014e": 316, "\u014f": 317, "\u0150": 318, "\u0151": 319, "\u0152": 320, "\u0153": 321, "\u0154": 322, "\u0155": 323, "\u0156": 324, "\u0157": 325, "\u0158": 326, "\u0159": 327, "\u015a": 328, "\u015b": 329, "\u015c": 330, "\u015d": 331, "\u015e": 332, "\u015f": 333, "\u0160": 334, "\u0161": 335, "\u0162": 336, "\u0163": 337, "\u0164": 338, "\u0165": 339, "\u0166": 340, "\u0167": 341, "\u0168": 342, "\u0169": 343, "\u016a": 344, "\u016b": 345, "\u016c": 346, "\u016d": 347, "\u016e": 348, "\u016f": 349, "\u0170": 350, "\u0171": 351, "\u0172": 352, "\u0173": 353, "\u0174": 354, "\u0175": 355, "\u0176": 356, "\u0177": 357, "\u0178": 358, "\u0179": 359, "\u017a": 360, "\u017b": 361, "\u017c": 362, "\u017d": 363, "\u017e": 364, "\u017f": 365, "\u0180": 366, "\u0182": 367, "\u0183": 368, "\u0184": 369, "\u0185": 370, "\u0186": 371, "\u0187": 372, "\u0188": 373, "\u0189": 374, "\u018a": 375, "\u0190": 376, "\u0191": 377, "\u0192": 378, "\u0193": 379, "\u0194": 380, "\u0196": 381, "\u0197": 382, "\u0198": 383, "\u0199": 384, "\u019a": 385, "\u019d": 386, "\u019e": 387, "\u019f": 388, "\u01a0": 389, "\u01a1": 390, "\u01a4": 391, "\u01a6": 392, "\u01ab": 393, "\u01ac": 394, "\u01ad": 395, "\u01ae": 396, "\u01af": 397, "\u01b0": 398, "\u01b1": 399, "\u01b2": 400, "\u01b3": 401, "\u01b4": 402, "\u01b5": 403, "\u01b6": 404, "\u01bf": 405, "\u01cd": 406, "\u01ce": 407, "\u01cf": 408, "\u01d0": 409, "\u01d1": 410, "\u01d2": 411, "\u01d3": 412, "\u01d4": 413, "\u01d5": 414, "\u01d6": 415, "\u01d7": 416, "\u01d8": 417, "\u01d9": 418, "\u01da": 419, "\u01db": 420, "\u01dc": 421, "\u01dd": 422, "\u01de": 423, "\u01df": 424, "\u01e0": 425, "\u01e1": 426, "\u01e2": 427, "\u01e3": 428, "\u01e4": 429, "\u01e5": 430, "\u01e6": 431, "\u01e7": 432, "\u01e8": 433, "\u01e9": 434, "\u01ea": 435, "\u01eb": 436, "\u01ec": 437, "\u01ed": 438, "\u01f0": 439, "\u01f4": 440, "\u01f5": 441, "\u01f7": 442, "\u01f8": 443, "\u01f9": 444, "\u01fa": 445, "\u01fb": 446, "\u01fc": 447, "\u01fd": 448, "\u01fe": 449, "\u01ff": 450, "\u0200": 451, "\u0201": 452, "\u0202": 453, "\u0203": 454, "\u0204": 455, "\u0205": 456, "\u0206": 457, "\u0207": 458, "\u0208": 459, "\u0209": 460, "\u020a": 461, "\u020b": 462, "\u020c": 463, "\u020d": 464, "\u020e": 465, "\u020f": 466, "\u0210": 467, "\u0211": 468, "\u0212": 469, "\u0213": 470, "\u0214": 471, "\u0215": 472, "\u0216": 473, "\u0217": 474, "\u0218": 475, "\u0219": 476, "\u021a": 477, "\u021b": 478, "\u021e": 479, "\u021f": 480, "\u0224": 481, "\u0225": 482, "\u0226": 483, "\u0227": 484, "\u0228": 485, "\u0229": 486, "\u022a": 487, "\u022b": 488, "\u022c": 489, "\u022d": 490, "\u022e": 491, "\u022f": 492, "\u0230": 493, "\u0231": 494, "\u0232": 495, "\u0233": 496, "\u0250": 497, "\u0251": 498, "\u0254": 499, "\u0259": 500, "\u025a": 501, "\u025b": 502, "\u025d": 503, "\u025f": 504, "\u0265": 505, "\u026a": 506, "\u026f": 507, "\u0275": 508, "\u0278": 509, "\u0279": 510, "\u0283": 511, "\u0287": 512, "\u028a": 513, "\u028c": 514, "\u028d": 515, "\u028e": 516, "\u0292": 517, "\u029e": 518, "\u02c6": 519, "\u02c8": 520, "\u02cc": 521, "\u02d7": 522, "\u02d8": 523, "\u02d9": 524, "\u02dc": 525, "\u02e5": 526, "\u02e6": 527, "\u02e7": 528, "\u02e8": 529, "\u02e9": 530, "\u02f1": 531, "\u02f2": 532, "\u02f9": 533, "\u02fa": 534, "\u0301": 535, "\u0302": 536, "\u0305": 537, "\u0315": 538, "\u0316": 539, "\u0318": 540, "\u031c": 541, "\u031e": 542, "\u031f": 543, "\u0322": 544, "\u0323": 545, "\u0324": 546, "\u0325": 547, "\u0326": 548, "\u0328": 549, "\u0329": 550, "\u032a": 551, "\u032c": 552, "\u032d": 553, "\u032f": 554, "\u0330": 555, "\u0331": 556, "\u0332": 557, "\u0333": 558, "\u0335": 559, "\u0339": 560, "\u033a": 561, "\u033b": 562, "\u033c": 563, "\u0342": 564, "\u0345": 565, "\u0347": 566, "\u0348": 567, "\u034d": 568, "\u034e": 569, "\u034f": 570, "\u0353": 571, "\u0359": 572, "\u035a": 573, "\u037e": 574, "\u0386": 575, "\u0388": 576, "\u0389": 577, "\u038a": 578, "\u038c": 579, "\u038e": 580, "\u038f": 581, "\u0390": 582, "\u0391": 583, "\u0392": 584, "\u0393": 585, "\u0394": 586, "\u0395": 587, "\u0397": 588, "\u0398": 589, "\u0399": 590, "\u039a": 591, "\u039b": 592, "\u039c": 593, "\u039f": 594, "\u03a0": 595, "\u03a1": 596, "\u03a3": 597, "\u03a4": 598, "\u03a5": 599, "\u03a6": 600, "\u03a7": 601, "\u03a9": 602, "\u03aa": 603, "\u03ac": 604, "\u03ad": 605, "\u03ae": 606, "\u03af": 607, "\u03b0": 608, "\u03b1": 609, "\u03b2": 610, "\u03b3": 611, "\u03b4": 612, "\u03b5": 613, "\u03b6": 614, "\u03b7": 615, "\u03b8": 616, "\u03b9": 617, "\u03ba": 618, "\u03bb": 619, "\u03bc": 620, "\u03bd": 621, "\u03be": 622, "\u03bf": 623, "\u03c0": 624, "\u03c1": 625, "\u03c2": 626, "\u03c3": 627, "\u03c4": 628, "\u03c5": 629, "\u03c6": 630, "\u03c7": 631, "\u03c8": 632, "\u03c9": 633, "\u03ca": 634, "\u03cb": 635, "\u03cc": 636, "\u03cd": 637, "\u03ce": 638, "\u03d5": 639, "\u03f2": 640, "\u03f4": 641, "\u03f5": 642, "\u0406": 643, "\u0410": 644, "\u0411": 645, "\u0412": 646, "\u0413": 647, "\u0414": 648, "\u0415": 649, "\u0416": 650, "\u0417": 651, "\u0418": 652, "\u0419": 653, "\u041a": 654, "\u041b": 655, "\u041c": 656, "\u041d": 657, "\u041e": 658, "\u041f": 659, "\u0420": 660, "\u0421": 661, "\u0422": 662, "\u0423": 663, "\u0424": 664, "\u0425": 665, "\u0426": 666, "\u0427": 667, "\u0428": 668, "\u042b": 669, "\u042d": 670, "\u042e": 671, "\u042f": 672, "\u0430": 673, "\u0431": 674, "\u0432": 675, "\u0433": 676, "\u0434": 677, "\u0435": 678, "\u0436": 679, "\u0437": 680, "\u0438": 681, "\u0439": 682, "\u043a": 683, "\u043b": 684, "\u043c": 685, "\u043d": 686, "\u043e": 687, "\u043f": 688, "\u0440": 689, "\u0441": 690, "\u0442": 691, "\u0443": 692, "\u0444": 693, "\u0445": 694, "\u0446": 695, "\u0447": 696, "\u0448": 697, "\u0449": 698, "\u044a": 699, "\u044b": 700, "\u044c": 701, "\u044d": 702, "\u044e": 703, "\u044f": 704, "\u0451": 705, "\u0454": 706, "\u0456": 707, "\u0458": 708, "\u045a": 709, "\u045b": 710, "\u0486": 711, "\u053f": 712, "\u0561": 713, "\u0562": 714, "\u0563": 715, "\u0565": 716, "\u0574": 717, "\u0576": 718, "\u0578": 719, "\u057e": 720, "\u0580": 721, "\u0582": 722, "\u058a": 723, "\u05d0": 724, "\u05d1": 725, "\u05d2": 726, "\u05d3": 727, "\u05d4": 728, "\u05d5": 729, "\u05d6": 730, "\u05d7": 731, "\u05d8": 732, "\u05d9": 733, "\u05db": 734, "\u05dc": 735, "\u05dd": 736, "\u05de": 737, "\u05df": 738, "\u05e0": 739, "\u05e2": 740, "\u05e4": 741, "\u05e7": 742, "\u05e8": 743, "\u05e9": 744, "\u05ea": 745, "\u060c": 746, "\u0621": 747, "\u0622": 748, "\u0623": 749, "\u0624": 750, "\u0625": 751, "\u0626": 752, "\u0627": 753, "\u0628": 754, "\u0629": 755, "\u062a": 756, "\u062b": 757, "\u062c": 758, "\u062d": 759, "\u062e": 760, "\u062f": 761, "\u0630": 762, "\u0631": 763, "\u0632": 764, "\u0633": 765, "\u0634": 766, "\u0635": 767, "\u0636": 768, "\u0637": 769, "\u0638": 770, "\u0639": 771, "\u063a": 772, "\u0641": 773, "\u0642": 774, "\u0643": 775, "\u0644": 776, "\u0645": 777, "\u0646": 778, "\u0647": 779, "\u0648": 780, "\u0649": 781, "\u064a": 782, "\u064b": 783, "\u067e": 784, "\u0686": 785, "\u06a9": 786, "\u06af": 787, "\u06c6": 788, "\u06cc": 789, "\u0901": 790, "\u0902": 791, "\u0908": 792, "\u0913": 793, "\u0915": 794, "\u0916": 795, "\u0917": 796, "\u0918": 797, "\u0919": 798, "\u091a": 799, "\u091b": 800, "\u091c": 801, "\u091d": 802, "\u091e": 803, "\u091f": 804, "\u0921": 805, "\u0922": 806, "\u0923": 807, "\u0924": 808, "\u0925": 809, "\u0926": 810, "\u0927": 811, "\u0928": 812, "\u092a": 813, "\u092b": 814, "\u092c": 815, "\u092d": 816, "\u092e": 817, "\u092f": 818, "\u0930": 819, "\u0932": 820, "\u0933": 821, "\u0934": 822, "\u0938": 823, "\u0939": 824, "\u093c": 825, "\u093d": 826, "\u093e": 827, "\u093f": 828, "\u0941": 829, "\u0942": 830, "\u0947": 831, "\u094b": 832, "\u094d": 833, "\u0950": 834, "\u0951": 835, "\u0954": 836, "\u0958": 837, "\u095f": 838, "\u0964": 839, "\u0965": 840, "\u0966": 841, "\u096f": 842, "\u0970": 843, "\u0982": 844, "\u0985": 845, "\u0986": 846, "\u0987": 847, "\u0989": 848, "\u098f": 849, "\u0993": 850, "\u0995": 851, "\u0996": 852, "\u0997": 853, "\u0999": 854, "\u099b": 855, "\u099c": 856, "\u099f": 857, "\u09a0": 858, "\u09a1": 859, "\u09a4": 860, "\u09a5": 861, "\u09a6": 862, "\u09a7": 863, "\u09a8": 864, "\u09aa": 865, "\u09ac": 866, "\u09ad": 867, "\u09ae": 868, "\u09af": 869, "\u09b0": 870, "\u09b2": 871, "\u09b6": 872, "\u09b7": 873, "\u09b8": 874, "\u09b9": 875, "\u09be": 876, "\u09bf": 877, "\u09c0": 878, "\u09c1": 879, "\u09c7": 880, "\u09cb": 881, "\u09cd": 882, "\u09df": 883, "\u09e6": 884, "\u09e8": 885, "\u09e9": 886, "\u0a1c": 887, "\u0a2a": 888, "\u0a2c": 889, "\u0a3e": 890, "\u0a40": 891, "\u0a70": 892, "\u0a9c": 893, "\u0ab0": 894, "\u0abe": 895, "\u0b2a": 896, "\u0b2d": 897, "\u0b30": 898, "\u0b32": 899, "\u0b33": 900, "\u0b36": 901, "\u0b37": 902, "\u0b39": 903, "\u0b3d": 904, "\u0b5c": 905, "\u0b5d": 906, "\u0b5f": 907, "\u0b60": 908, "\u0b61": 909, "\u0b85": 910, "\u0b87": 911, "\u0b8a": 912, "\u0b8e": 913, "\u0b8f": 914, "\u0b90": 915, "\u0b92": 916, "\u0b93": 917, "\u0b95": 918, "\u0b99": 919, "\u0b9a": 920, "\u0ba8": 921, "\u0bbe": 922, "\u0bbf": 923, "\u0bc6": 924, "\u0bc7": 925, "\u0d9a": 926, "\u0db8": 927, "\u0dc3": 928, "\u0dca": 929, "\u0dd0": 930, "\u0dd3": 931, "\u0e01": 932, "\u0e02": 933, "\u0e04": 934, "\u0e06": 935, "\u0e07": 936, "\u0e08": 937, "\u0e0a": 938, "\u0e0b": 939, "\u0e0d": 940, "\u0e13": 941, "\u0e14": 942, "\u0e15": 943, "\u0e16": 944, "\u0e17": 945, "\u0e18": 946, "\u0e19": 947, "\u0e1a": 948, "\u0e1b": 949, "\u0e1c": 950, "\u0e1e": 951, "\u0e20": 952, "\u0e21": 953, "\u0e22": 954, "\u0e23": 955, "\u0e24": 956, "\u0e25": 957, "\u0e27": 958, "\u0e28": 959, "\u0e29": 960, "\u0e2a": 961, "\u0e2b": 962, "\u0e2c": 963, "\u0e2d": 964, "\u0e2e": 965, "\u0e2f": 966, "\u0e30": 967, "\u0e31": 968, "\u0e32": 969, "\u0e33": 970, "\u0e34": 971, "\u0e35": 972, "\u0e36": 973, "\u0e37": 974, "\u0e38": 975, "\u0e40": 976, "\u0e41": 977, "\u0e43": 978, "\u0e44": 979, "\u0e47": 980, "\u0e48": 981, "\u0e49": 982, "\u0e4c": 983, "\u0e51": 984, "\u0e52": 985, "\u0e53": 986, "\u0e57": 987, "\u0e81": 988, "\u0e84": 989, "\u0e87": 990, "\u0e95": 991, "\u0e99": 992, "\u0ead": 993, "\u0eae": 994, "\u0eb1": 995, "\u0eb2": 996, "\u0eb7": 997, "\u0ec0": 998, "\u0ec8": 999, "\u0ec9": 1000, "\u10d0": 1001, "\u10d1": 1002, "\u10d4": 1003, "\u10d8": 1004, "\u10db": 1005, "\u10de": 1006, "\u10e0": 1007, "\u10e2": 1008, "\u10ff": 1009, "\u122e": 1010, "\u1245": 1011, "\u1265": 1012, "\u127d": 1013, "\u1295": 1014, "\u1587": 1015, "\u16a0": 1016, "\u16a2": 1017, "\u16a3": 1018, "\u16a6": 1019, "\u16a9": 1020, "\u16aa": 1021, "\u16ab": 1022, "\u16b1": 1023, "\u16b3": 1024, "\u16b7": 1025, "\u16b9": 1026, "\u16bb": 1027, "\u16be": 1028, "\u16c1": 1029, "\u16cb": 1030, "\u16cf": 1031, "\u16d6": 1032, "\u16d7": 1033, "\u16da": 1034, "\u16dd": 1035, "\u16de": 1036, "\u16e0": 1037, "\u1780": 1038, "\u178e": 1039, "\u178f": 1040, "\u179a": 1041, "\u17b6": 1042, "\u17c6": 1043, "\u17cb": 1044, "\u1d11": 1045, "\u1d25": 1046, "\u1d40": 1047, "\u1e00": 1048, "\u1e01": 1049, "\u1e02": 1050, "\u1e03": 1051, "\u1e04": 1052, "\u1e05": 1053, "\u1e06": 1054, "\u1e07": 1055, "\u1e08": 1056, "\u1e09": 1057, "\u1e0a": 1058, "\u1e0b": 1059, "\u1e0c": 1060, "\u1e0d": 1061, "\u1e0e": 1062, "\u1e0f": 1063, "\u1e10": 1064, "\u1e11": 1065, "\u1e12": 1066, "\u1e13": 1067, "\u1e14": 1068, "\u1e15": 1069, "\u1e16": 1070, "\u1e17": 1071, "\u1e18": 1072, "\u1e19": 1073, "\u1e1a": 1074, "\u1e1b": 1075, "\u1e1c": 1076, "\u1e1d": 1077, "\u1e1e": 1078, "\u1e1f": 1079, "\u1e20": 1080, "\u1e21": 1081, "\u1e22": 1082, "\u1e23": 1083, "\u1e24": 1084, "\u1e25": 1085, "\u1e26": 1086, "\u1e27": 1087, "\u1e28": 1088, "\u1e29": 1089, "\u1e2a": 1090, "\u1e2b": 1091, "\u1e2c": 1092, "\u1e2d": 1093, "\u1e2e": 1094, "\u1e2f": 1095, "\u1e30": 1096, "\u1e31": 1097, "\u1e32": 1098, "\u1e33": 1099, "\u1e34": 1100, "\u1e35": 1101, "\u1e36": 1102, "\u1e37": 1103, "\u1e38": 1104, "\u1e39": 1105, "\u1e3a": 1106, "\u1e3b": 1107, "\u1e3c": 1108, "\u1e3d": 1109, "\u1e3e": 1110, "\u1e3f": 1111, "\u1e40": 1112, "\u1e41": 1113, "\u1e42": 1114, "\u1e43": 1115, "\u1e44": 1116, "\u1e45": 1117, "\u1e46": 1118, "\u1e47": 1119, "\u1e48": 1120, "\u1e49": 1121, "\u1e4a": 1122, "\u1e4b": 1123, "\u1e4c": 1124, "\u1e4d": 1125, "\u1e4e": 1126, "\u1e4f": 1127, "\u1e50": 1128, "\u1e51": 1129, "\u1e52": 1130, "\u1e53": 1131, "\u1e54": 1132, "\u1e55": 1133, "\u1e56": 1134, "\u1e57": 1135, "\u1e58": 1136, "\u1e59": 1137, "\u1e5a": 1138, "\u1e5b": 1139, "\u1e5c": 1140, "\u1e5d": 1141, "\u1e5e": 1142, "\u1e5f": 1143, "\u1e60": 1144, "\u1e61": 1145, "\u1e62": 1146, "\u1e63": 1147, "\u1e64": 1148, "\u1e65": 1149, "\u1e66": 1150, "\u1e67": 1151, "\u1e68": 1152, "\u1e69": 1153, "\u1e6a": 1154, "\u1e6b": 1155, "\u1e6c": 1156, "\u1e6d": 1157, "\u1e6e": 1158, "\u1e6f": 1159, "\u1e70": 1160, "\u1e71": 1161, "\u1e72": 1162, "\u1e73": 1163, "\u1e74": 1164, "\u1e75": 1165, "\u1e76": 1166, "\u1e77": 1167, "\u1e78": 1168, "\u1e79": 1169, "\u1e7a": 1170, "\u1e7b": 1171, "\u1e7c": 1172, "\u1e7d": 1173, "\u1e7e": 1174, "\u1e7f": 1175, "\u1e80": 1176, "\u1e81": 1177, "\u1e82": 1178, "\u1e83": 1179, "\u1e84": 1180, "\u1e85": 1181, "\u1e86": 1182, "\u1e87": 1183, "\u1e88": 1184, "\u1e89": 1185, "\u1e8a": 1186, "\u1e8b": 1187, "\u1e8c": 1188, "\u1e8d": 1189, "\u1e8e": 1190, "\u1e8f": 1191, "\u1e90": 1192, "\u1e91": 1193, "\u1e92": 1194, "\u1e93": 1195, "\u1e94": 1196, "\u1e95": 1197, "\u1e96": 1198, "\u1e97": 1199, "\u1e98": 1200, "\u1e99": 1201, "\u1e9a": 1202, "\u1e9b": 1203, "\u1ea0": 1204, "\u1ea1": 1205, "\u1ea2": 1206, "\u1ea3": 1207, "\u1ea4": 1208, "\u1ea5": 1209, "\u1ea6": 1210, "\u1ea7": 1211, "\u1ea8": 1212, "\u1ea9": 1213, "\u1eaa": 1214, "\u1eab": 1215, "\u1eac": 1216, "\u1ead": 1217, "\u1eae": 1218, "\u1eaf": 1219, "\u1eb0": 1220, "\u1eb1": 1221, "\u1eb2": 1222, "\u1eb3": 1223, "\u1eb4": 1224, "\u1eb5": 1225, "\u1eb6": 1226, "\u1eb7": 1227, "\u1eb8": 1228, "\u1eb9": 1229, "\u1eba": 1230, "\u1ebb": 1231, "\u1ebc": 1232, "\u1ebd": 1233, "\u1ebe": 1234, "\u1ebf": 1235, "\u1ec0": 1236, "\u1ec1": 1237, "\u1ec2": 1238, "\u1ec3": 1239, "\u1ec4": 1240, "\u1ec5": 1241, "\u1ec6": 1242, "\u1ec7": 1243, "\u1ec8": 1244, "\u1ec9": 1245, "\u1eca": 1246, "\u1ecb": 1247, "\u1ecc": 1248, "\u1ecd": 1249, "\u1ece": 1250, "\u1ecf": 1251, "\u1ed0": 1252, "\u1ed1": 1253, "\u1ed2": 1254, "\u1ed3": 1255, "\u1ed4": 1256, "\u1ed5": 1257, "\u1ed6": 1258, "\u1ed7": 1259, "\u1ed8": 1260, "\u1ed9": 1261, "\u1eda": 1262, "\u1edb": 1263, "\u1edc": 1264, "\u1edd": 1265, "\u1ede": 1266, "\u1edf": 1267, "\u1ee0": 1268, "\u1ee1": 1269, "\u1ee2": 1270, "\u1ee3": 1271, "\u1ee4": 1272, "\u1ee5": 1273, "\u1ee6": 1274, "\u1ee7": 1275, "\u1ee8": 1276, "\u1ee9": 1277, "\u1eea": 1278, "\u1eeb": 1279, "\u1eec": 1280, "\u1eed": 1281, "\u1eee": 1282, "\u1eef": 1283, "\u1ef0": 1284, "\u1ef1": 1285, "\u1ef2": 1286, "\u1ef3": 1287, "\u1ef4": 1288, "\u1ef5": 1289, "\u1ef6": 1290, "\u1ef7": 1291, "\u1ef8": 1292, "\u1ef9": 1293, "\u1f00": 1294, "\u1f01": 1295, "\u1f02": 1296, "\u1f03": 1297, "\u1f04": 1298, "\u1f05": 1299, "\u1f06": 1300, "\u1f07": 1301, "\u1f10": 1302, "\u1f11": 1303, "\u1f12": 1304, "\u1f13": 1305, "\u1f14": 1306, "\u1f15": 1307, "\u1f20": 1308, "\u1f21": 1309, "\u1f22": 1310, "\u1f23": 1311, "\u1f24": 1312, "\u1f25": 1313, "\u1f26": 1314, "\u1f27": 1315, "\u1f30": 1316, "\u1f31": 1317, "\u1f32": 1318, "\u1f33": 1319, "\u1f34": 1320, "\u1f35": 1321, "\u1f36": 1322, "\u1f37": 1323, "\u1f40": 1324, "\u1f41": 1325, "\u1f42": 1326, "\u1f43": 1327, "\u1f44": 1328, "\u1f45": 1329, "\u1f50": 1330, "\u1f51": 1331, "\u1f52": 1332, "\u1f53": 1333, "\u1f54": 1334, "\u1f55": 1335, "\u1f56": 1336, "\u1f57": 1337, "\u1f60": 1338, "\u1f61": 1339, "\u1f62": 1340, "\u1f63": 1341, "\u1f64": 1342, "\u1f65": 1343, "\u1f66": 1344, "\u1f67": 1345, "\u1f70": 1346, "\u1f72": 1347, "\u1f74": 1348, "\u1f76": 1349, "\u1f78": 1350, "\u1f7a": 1351, "\u1f7c": 1352, "\u1f82": 1353, "\u1f83": 1354, "\u1f86": 1355, "\u1f87": 1356, "\u1f90": 1357, "\u1f91": 1358, "\u1f92": 1359, "\u1f93": 1360, "\u1f96": 1361, "\u1f97": 1362, "\u1fa0": 1363, "\u1fa1": 1364, "\u1fa2": 1365, "\u1fa3": 1366, "\u1fa6": 1367, "\u1fa7": 1368, "\u1fb3": 1369, "\u1fb6": 1370, "\u1fb7": 1371, "\u1fbd": 1372, "\u1fbf": 1373, "\u1fc2": 1374, "\u1fc3": 1375, "\u1fc4": 1376, "\u1fc6": 1377, "\u1fc7": 1378, "\u1fd6": 1379, "\u1fe6": 1380, "\u1ff2": 1381, "\u1ff3": 1382, "\u1ff4": 1383, "\u1ff6": 1384, "\u1ff7": 1385, "\u1ffe": 1386, "\u2003": 1387, "\u2009": 1388, "\u200a": 1389, "\u200b": 1390, "\u200c": 1391, "\u2010": 1392, "\u2011": 1393, "\u2012": 1394, "\u2013": 1395, "\u2014": 1396, "\u2015": 1397, "\u2018": 1398, "\u2019": 1399, "\u201a": 1400, "\u201b": 1401, "\u201c": 1402, "\u201d": 1403, "\u201e": 1404, "\u201f": 1405, "\u2020": 1406, "\u2021": 1407, "\u2022": 1408, "\u2023": 1409, "\u2026": 1410, "\u2027": 1411, "\u2028": 1412, "\u202a": 1413, "\u202b": 1414, "\u202c": 1415, "\u202f": 1416, "\u2030": 1417, "\u2032": 1418, "\u2033": 1419, "\u2034": 1420, "\u2035": 1421, "\u2036": 1422, "\u2037": 1423, "\u2039": 1424, "\u203a": 1425, "\u203b": 1426, "\u2043": 1427, "\u2044": 1428, "\u2057": 1429, "\u2070": 1430, "\u2074": 1431, "\u2075": 1432, "\u2076": 1433, "\u2077": 1434, "\u2078": 1435, "\u2079": 1436, "\u207b": 1437, "\u207d": 1438, "\u207e": 1439, "\u2080": 1440, "\u2081": 1441, "\u2082": 1442, "\u2083": 1443, "\u2084": 1444, "\u2085": 1445, "\u2086": 1446, "\u2087": 1447, "\u2088": 1448, "\u2089": 1449, "\u208b": 1450, "\u208d": 1451, "\u208e": 1452, "\u2093": 1453, "\u2095": 1454, "\u2098": 1455, "\u209b": 1456, "\u20a9": 1457, "\u20ac": 1458, "\u20b9": 1459, "\u20d7": 1460, "\u20e3": 1461, "\u2103": 1462, "\u2109": 1463, "\u210c": 1464, "\u210d": 1465, "\u2113": 1466, "\u2116": 1467, "\u2122": 1468, "\u2139": 1469, "\u2147": 1470, "\u2153": 1471, "\u2190": 1472, "\u2191": 1473, "\u2192": 1474, "\u2193": 1475, "\u2194": 1476, "\u2196": 1477, "\u2197": 1478, "\u2198": 1479, "\u2199": 1480, "\u21a2": 1481, "\u21a3": 1482, "\u21a6": 1483, "\u21b4": 1484, "\u21b5": 1485, "\u21ba": 1486, "\u21cc": 1487, "\u21d2": 1488, "\u21d4": 1489, "\u21dc": 1490, "\u21dd": 1491, "\u21e5": 1492, "\u21e6": 1493, "\u21e7": 1494, "\u21e8": 1495, "\u21e9": 1496, "\u21f2": 1497, "\u2200": 1498, "\u2202": 1499, "\u2203": 1500, "\u2205": 1501, "\u2207": 1502, "\u2208": 1503, "\u2209": 1504, "\u220a": 1505, "\u220f": 1506, "\u2211": 1507, "\u2212": 1508, "\u2217": 1509, "\u2218": 1510, "\u2219": 1511, "\u221a": 1512, "\u221d": 1513, "\u221e": 1514, "\u2220": 1515, "\u2223": 1516, "\u2227": 1517, "\u2228": 1518, "\u2229": 1519, "\u222a": 1520, "\u222b": 1521, "\u2237": 1522, "\u223d": 1523, "\u2248": 1524, "\u2260": 1525, "\u2261": 1526, "\u2264": 1527, "\u2265": 1528, "\u2266": 1529, "\u2267": 1530, "\u2282": 1531, "\u2286": 1532, "\u2295": 1533, "\u2297": 1534, "\u2299": 1535, "\u22a5": 1536, "\u22b8": 1537, "\u22bb": 1538, "\u22c0": 1539, "\u22c3": 1540, "\u22c5": 1541, "\u22ef": 1542, "\u2308": 1543, "\u2309": 1544, "\u230a": 1545, "\u230b": 1546, "\u2310": 1547, "\u2313": 1548, "\u2318": 1549, "\u231a": 1550, "\u231d": 1551, "\u231e": 1552, "\u231f": 1553, "\u2329": 1554, "\u232a": 1555, "\u2388": 1556, "\u239b": 1557, "\u239c": 1558, "\u239d": 1559, "\u239e": 1560, "\u239f": 1561, "\u23a0": 1562, "\u23a1": 1563, "\u23a2": 1564, "\u23a3": 1565, "\u23a4": 1566, "\u23a5": 1567, "\u23a6": 1568, "\u23ed": 1569, "\u23ef": 1570, "\u23f0": 1571, "\u23f1": 1572, "\u23f8": 1573, "\u23f9": 1574, "\u24d2": 1575, "\u24de": 1576, "\u24df": 1577, "\u2500": 1578, "\u2501": 1579, "\u2502": 1580, "\u2503": 1581, "\u250a": 1582, "\u250b": 1583, "\u250c": 1584, "\u250f": 1585, "\u2510": 1586, "\u2513": 1587, "\u2514": 1588, "\u2515": 1589, "\u2517": 1590, "\u2518": 1591, "\u251b": 1592, "\u251c": 1593, "\u2523": 1594, "\u2524": 1595, "\u252b": 1596, "\u252c": 1597, "\u252f": 1598, "\u2533": 1599, "\u2534": 1600, "\u253b": 1601, "\u253c": 1602, "\u254b": 1603, "\u2550": 1604, "\u2551": 1605, "\u2554": 1606, "\u2557": 1607, "\u2558": 1608, "\u255a": 1609, "\u255b": 1610, "\u255d": 1611, "\u2560": 1612, "\u2563": 1613, "\u2565": 1614, "\u2566": 1615, "\u2567": 1616, "\u2569": 1617, "\u256a": 1618, "\u256b": 1619, "\u256c": 1620, "\u256d": 1621, "\u256e": 1622, "\u256f": 1623, "\u2570": 1624, "\u2571": 1625, "\u2572": 1626, "\u2580": 1627, "\u2581": 1628, "\u2582": 1629, "\u2583": 1630, "\u2584": 1631, "\u2585": 1632, "\u2586": 1633, "\u2587": 1634, "\u2588": 1635, "\u258a": 1636, "\u258b": 1637, "\u258c": 1638, "\u258d": 1639, "\u258e": 1640, "\u258f": 1641, "\u2590": 1642, "\u2591": 1643, "\u2592": 1644, "\u25a0": 1645, "\u25a1": 1646, "\u25b6": 1647, "\u25ba": 1648, "\u25bd": 1649, "\u25be": 1650, "\u25bf": 1651, "\u25c4": 1652, "\u25c6": 1653, "\u25c8": 1654, "\u25cb": 1655, "\u25cc": 1656, "\u25cf": 1657, "\u25e6": 1658, "\u2603": 1659, "\u2605": 1660, "\u2606": 1661, "\u2609": 1662, "\u2611": 1663, "\u261c": 1664, "\u261d": 1665, "\u261e": 1666, "\u2622": 1667, "\u262f": 1668, "\u2630": 1669, "\u2631": 1670, "\u2632": 1671, "\u2633": 1672, "\u2634": 1673, "\u2635": 1674, "\u2636": 1675, "\u2637": 1676, "\u2639": 1677, "\u263a": 1678, "\u263e": 1679, "\u2665": 1680, "\u2666": 1681, "\u2669": 1682, "\u266a": 1683, "\u266b": 1684, "\u266c": 1685, "\u2694": 1686, "\u2695": 1687, "\u2696": 1688, "\u26a0": 1689, "\u26b0": 1690, "\u26d4": 1691, "\u2705": 1692, "\u2708": 1693, "\u270a": 1694, "\u2713": 1695, "\u2714": 1696, "\u2715": 1697, "\u2716": 1698, "\u2717": 1699, "\u2718": 1700, "\u2744": 1701, "\u2749": 1702, "\u274c": 1703, "\u274e": 1704, "\u2753": 1705, "\u275d": 1706, "\u2764": 1707, "\u276f": 1708, "\u2776": 1709, "\u2777": 1710, "\u2778": 1711, "\u2779": 1712, "\u277a": 1713, "\u277b": 1714, "\u277c": 1715, "\u277d": 1716, "\u277e": 1717, "\u277f": 1718, "\u279d": 1719, "\u27a4": 1720, "\u27a9": 1721, "\u27b2": 1722, "\u27cb": 1723, "\u27cd": 1724, "\u27e8": 1725, "\u27e9": 1726, "\u2800": 1727, "\u2801": 1728, "\u2802": 1729, "\u2803": 1730, "\u2804": 1731, "\u2806": 1732, "\u2807": 1733, "\u2808": 1734, "\u2809": 1735, "\u280b": 1736, "\u2810": 1737, "\u2813": 1738, "\u2818": 1739, "\u2819": 1740, "\u281b": 1741, "\u281f": 1742, "\u2820": 1743, "\u2834": 1744, "\u2836": 1745, "\u2838": 1746, "\u2839": 1747, "\u283b": 1748, "\u283f": 1749, "\u2840": 1750, "\u2844": 1751, "\u2846": 1752, "\u2847": 1753, "\u284f": 1754, "\u285f": 1755, "\u2860": 1756, "\u287c": 1757, "\u287f": 1758, "\u2880": 1759, "\u2892": 1760, "\u28a0": 1761, "\u28b7": 1762, "\u28bf": 1763, "\u28c0": 1764, "\u28c4": 1765, "\u28c7": 1766, "\u28cd": 1767, "\u28db": 1768, "\u28e0": 1769, "\u28e4": 1770, "\u28e6": 1771, "\u28e9": 1772, "\u28ed": 1773, "\u28f0": 1774, "\u28f6": 1775, "\u28f8": 1776, "\u28fc": 1777, "\u28fe": 1778, "\u28ff": 1779, "\u2a7d": 1780, "\u2b1b": 1781, "\u2b1c": 1782, "\u2b50": 1783, "\u2b55": 1784, "\u2c60": 1785, "\u2e17": 1786, "\u2e28": 1787, "\u2e29": 1788, "\u2ff0": 1789, "\u2ff1": 1790, "\u2ff4": 1791, "\u3000": 1792, "\u3001": 1793, "\u3002": 1794, "\u3003": 1795, "\u3005": 1796, "\u3007": 1797, "\u3009": 1798, "\u300a": 1799, "\u300b": 1800, "\u300c": 1801, "\u300d": 1802, "\u300e": 1803, "\u300f": 1804, "\u3010": 1805, "\u3011": 1806, "\u3014": 1807, "\u3015": 1808, "\u3016": 1809, "\u3017": 1810, "\u3018": 1811, "\u3019": 1812, "\u301a": 1813, "\u301b": 1814, "\u301c": 1815, "\u301d": 1816, "\u301e": 1817, "\u301f": 1818, "\u3030": 1819, "\u303e": 1820, "\u303f": 1821, "\u3041": 1822, "\u3042": 1823, "\u3043": 1824, "\u3044": 1825, "\u3046": 1826, "\u3047": 1827, "\u3048": 1828, "\u3049": 1829, "\u304a": 1830, "\u304b": 1831, "\u304c": 1832, "\u304d": 1833, "\u304e": 1834, "\u304f": 1835, "\u3050": 1836, "\u3051": 1837, "\u3052": 1838, "\u3053": 1839, "\u3054": 1840, "\u3055": 1841, "\u3056": 1842, "\u3057": 1843, "\u3058": 1844, "\u3059": 1845, "\u305a": 1846, "\u305b": 1847, "\u305c": 1848, "\u305d": 1849, "\u305e": 1850, "\u305f": 1851, "\u3060": 1852, "\u3061": 1853, "\u3062": 1854, "\u3063": 1855, "\u3064": 1856, "\u3065": 1857, "\u3066": 1858, "\u3067": 1859, "\u3068": 1860, "\u3069": 1861, "\u306a": 1862, "\u306b": 1863, "\u306c": 1864, "\u306d": 1865, "\u306e": 1866, "\u306f": 1867, "\u3070": 1868, "\u3071": 1869, "\u3072": 1870, "\u3073": 1871, "\u3074": 1872, "\u3075": 1873, "\u3076": 1874, "\u3077": 1875, "\u3078": 1876, "\u3079": 1877, "\u307a": 1878, "\u307b": 1879, "\u307c": 1880, "\u307d": 1881, "\u307e": 1882, "\u307f": 1883, "\u3080": 1884, "\u3081": 1885, "\u3082": 1886, "\u3083": 1887, "\u3084": 1888, "\u3085": 1889, "\u3086": 1890, "\u3087": 1891, "\u3088": 1892, "\u3089": 1893, "\u308a": 1894, "\u308b": 1895, "\u308c": 1896, "\u308d": 1897, "\u308f": 1898, "\u3090": 1899, "\u3091": 1900, "\u3092": 1901, "\u3093": 1902, "\u3094": 1903, "\u309c": 1904, "\u30a1": 1905, "\u30a2": 1906, "\u30a3": 1907, "\u30a4": 1908, "\u30a6": 1909, "\u30a7": 1910, "\u30a8": 1911, "\u30a9": 1912, "\u30aa": 1913, "\u30ab": 1914, "\u30ac": 1915, "\u30ad": 1916, "\u30ae": 1917, "\u30af": 1918, "\u30b0": 1919, "\u30b1": 1920, "\u30b2": 1921, "\u30b3": 1922, "\u30b4": 1923, "\u30b5": 1924, "\u30b6": 1925, "\u30b7": 1926, "\u30b8": 1927, "\u30b9": 1928, "\u30ba": 1929, "\u30bb": 1930, "\u30bc": 1931, "\u30bd": 1932, "\u30be": 1933, "\u30bf": 1934, "\u30c0": 1935, "\u30c1": 1936, "\u30c2": 1937, "\u30c3": 1938, "\u30c4": 1939, "\u30c5": 1940, "\u30c6": 1941, "\u30c7": 1942, "\u30c8": 1943, "\u30c9": 1944, "\u30ca": 1945, "\u30cb": 1946, "\u30cd": 1947, "\u30ce": 1948, "\u30cf": 1949, "\u30d0": 1950, "\u30d1": 1951, "\u30d2": 1952, "\u30d3": 1953, "\u30d4": 1954, "\u30d5": 1955, "\u30d6": 1956, "\u30d7": 1957, "\u30d8": 1958, "\u30d9": 1959, "\u30da": 1960, "\u30dc": 1961, "\u30dd": 1962, "\u30de": 1963, "\u30df": 1964, "\u30e0": 1965, "\u30e1": 1966, "\u30e2": 1967, "\u30e3": 1968, "\u30e4": 1969, "\u30e5": 1970, "\u30e6": 1971, "\u30e7": 1972, "\u30e9": 1973, "\u30ea": 1974, "\u30eb": 1975, "\u30ec": 1976, "\u30ed": 1977, "\u30ef": 1978, "\u30f3": 1979, "\u30f4": 1980, "\u30f9": 1981, "\u30fb": 1982, "\u30fc": 1983, "\u30fd": 1984, "\u30fe": 1985, "\u3131": 1986, "\u3132": 1987, "\u3133": 1988, "\u3134": 1989, "\u3135": 1990, "\u3136": 1991, "\u3137": 1992, "\u3139": 1993, "\u313a": 1994, "\u313b": 1995, "\u313c": 1996, "\u313d": 1997, "\u313e": 1998, "\u313f": 1999, "\u3140": 2000, "\u3141": 2001, "\u3142": 2002, "\u3145": 2003, "\u3147": 2004, "\u3148": 2005, "\u314c": 2006, "\u314d": 2007, "\u314e": 2008, "\u314f": 2009, "\u3153": 2010, "\u3154": 2011, "\u3157": 2012, "\u338d": 2013, "\u33a5": 2014, "\u4de9": 2015, "\u4dee": 2016, "\u4e00": 2017, "\u4e01": 2018, "\u4e02": 2019, "\u4e03": 2020, "\u4e07": 2021, "\u4e09": 2022, "\u4e0a": 2023, "\u4e0b": 2024, "\u4e0d": 2025, "\u4e0e": 2026, "\u4e13": 2027, "\u4e14": 2028, "\u4e16": 2029, "\u4e18": 2030, "\u4e19": 2031, "\u4e1a": 2032, "\u4e1c": 2033, "\u4e1d": 2034, "\u4e21": 2035, "\u4e22": 2036, "\u4e24": 2037, "\u4e25": 2038, "\u4e26": 2039, "\u4e2a": 2040, "\u4e2d": 2041, "\u4e30": 2042, "\u4e32": 2043, "\u4e34": 2044, "\u4e38": 2045, "\u4e39": 2046, "\u4e3a": 2047, "\u4e3b": 2048, "\u4e3d": 2049, "\u4e3e": 2050, "\u4e45": 2051, "\u4e48": 2052, "\u4e49": 2053, "\u4e4b": 2054, "\u4e4c": 2055, "\u4e4e": 2056, "\u4e50": 2057, "\u4e54": 2058, "\u4e56": 2059, "\u4e57": 2060, "\u4e58": 2061, "\u4e59": 2062, "\u4e5c": 2063, "\u4e5d": 2064, "\u4e5f": 2065, "\u4e60": 2066, "\u4e61": 2067, "\u4e66": 2068, "\u4e70": 2069, "\u4e71": 2070, "\u4e86": 2071, "\u4e88": 2072, "\u4e89": 2073, "\u4e8b": 2074, "\u4e8c": 2075, "\u4e8e": 2076, "\u4e8f": 2077, "\u4e91": 2078, "\u4e92": 2079, "\u4e93": 2080, "\u4e94": 2081, "\u4e95": 2082, "\u4e9a": 2083, "\u4e9b": 2084, "\u4ea1": 2085, "\u4ea2": 2086, "\u4ea4": 2087, "\u4ea6": 2088, "\u4ea7": 2089, "\u4ea8": 2090, "\u4eab": 2091, "\u4eac": 2092, "\u4ead": 2093, "\u4eae": 2094, "\u4eb3": 2095, "\u4eba": 2096, "\u4ebb": 2097, "\u4ebf": 2098, "\u4ec0": 2099, "\u4ec1": 2100, "\u4ec5": 2101, "\u4ec7": 2102, "\u4ec9": 2103, "\u4eca": 2104, "\u4ecb": 2105, "\u4ecd": 2106, "\u4ece": 2107, "\u4ed3": 2108, "\u4ed6": 2109, "\u4ed8": 2110, "\u4ed9": 2111, "\u4ee3": 2112, "\u4ee4": 2113, "\u4ee5": 2114, "\u4eea": 2115, "\u4eec": 2116, "\u4ef0": 2117, "\u4ef2": 2118, "\u4ef6": 2119, "\u4ef7": 2120, "\u4efb": 2121, "\u4efd": 2122, "\u4eff": 2123, "\u4f01": 2124, "\u4f0a": 2125, "\u4f0d": 2126, "\u4f0f": 2127, "\u4f11": 2128, "\u4f17": 2129, "\u4f18": 2130, "\u4f1a": 2131, "\u4f1f": 2132, "\u4f20": 2133, "\u4f26": 2134, "\u4f2a": 2135, "\u4f2f": 2136, "\u4f30": 2137, "\u4f38": 2138, "\u4f3c": 2139, "\u4f46": 2140, "\u4f4d": 2141, "\u4f4e": 2142, "\u4f4f": 2143, "\u4f51": 2144, "\u4f53": 2145, "\u4f55": 2146, "\u4f58": 2147, "\u4f59": 2148, "\u4f5b": 2149, "\u4f5c": 2150, "\u4f5f": 2151, "\u4f60": 2152, "\u4f63": 2153, "\u4f69": 2154, "\u4f73": 2155, "\u4f74": 2156, "\u4f75": 2157, "\u4f7f": 2158, "\u4f86": 2159, "\u4f8b": 2160, "\u4f9b": 2161, "\u4f9d": 2162, "\u4fa1": 2163, "\u4fa7": 2164, "\u4faf": 2165, "\u4fbf": 2166, "\u4fc2": 2167, "\u4fc3": 2168, "\u4fc4": 2169, "\u4fca": 2170, "\u4fd8": 2171, "\u4fdd": 2172, "\u4fde": 2173, "\u4fdf": 2174, "\u4fe1": 2175, "\u4fee": 2176, "\u500b": 2177, "\u500d": 2178, "\u5012": 2179, "\u5019": 2180, "\u501f": 2181, "\u5024": 2182, "\u5029": 2183, "\u502a": 2184, "\u503a": 2185, "\u503c": 2186, "\u5047": 2187, "\u504f": 2188, "\u505a": 2189, "\u505c": 2190, "\u5065": 2191, "\u5074": 2192, "\u5076": 2193, "\u507d": 2194, "\u507f": 2195, "\u5085": 2196, "\u508d": 2197, "\u5099": 2198, "\u50a8": 2199, "\u50b3": 2200, "\u50be": 2201, "\u50cf": 2202, "\u50f9": 2203, "\u510b": 2204, "\u5112": 2205, "\u512a": 2206, "\u5132": 2207, "\u513f": 2208, "\u5141": 2209, "\u5143": 2210, "\u5144": 2211, "\u5145": 2212, "\u5146": 2213, "\u5148": 2214, "\u5149": 2215, "\u514b": 2216, "\u514d": 2217, "\u515a": 2218, "\u5165": 2219, "\u5167": 2220, "\u5168": 2221, "\u5169": 2222, "\u516b": 2223, "\u516c": 2224, "\u516d": 2225, "\u5170": 2226, "\u5171": 2227, "\u5173": 2228, "\u5174": 2229, "\u5175": 2230, "\u5176": 2231, "\u5177": 2232, "\u5178": 2233, "\u5179": 2234, "\u517b": 2235, "\u517c": 2236, "\u517d": 2237, "\u5180": 2238, "\u5185": 2239, "\u5186": 2240, "\u5188": 2241, "\u5189": 2242, "\u518c": 2243, "\u518d": 2244, "\u5192": 2245, "\u5197": 2246, "\u5199": 2247, "\u519b": 2248, "\u519c": 2249, "\u51a0": 2250, "\u51a4": 2251, "\u51af": 2252, "\u51b0": 2253, "\u51b2": 2254, "\u51b3": 2255, "\u51b5": 2256, "\u51b6": 2257, "\u51b7": 2258, "\u51bb": 2259, "\u51c0": 2260, "\u51c6": 2261, "\u51c9": 2262, "\u51cc": 2263, "\u51cf": 2264, "\u51dd": 2265, "\u51e0": 2266, "\u51e1": 2267, "\u51e4": 2268, "\u51e6": 2269, "\u51ed": 2270, "\u51ef": 2271, "\u51f8": 2272, "\u51fa": 2273, "\u51fb": 2274, "\u51fd": 2275, "\u5200": 2276, "\u5201": 2277, "\u5202": 2278, "\u5206": 2279, "\u5207": 2280, "\u5212": 2281, "\u5217": 2282, "\u5218": 2283, "\u5219": 2284, "\u521a": 2285, "\u521b": 2286, "\u521d": 2287, "\u5220": 2288, "\u5224": 2289, "\u5225": 2290, "\u5229": 2291, "\u522a": 2292, "\u522b": 2293, "\u5230": 2294, "\u5236": 2295, "\u5237": 2296, "\u5238": 2297, "\u523b": 2298, "\u5247": 2299, "\u524a": 2300, "\u524d": 2301, "\u5251": 2302, "\u5254": 2303, "\u5269": 2304, "\u526a": 2305, "\u526f": 2306, "\u5272": 2307, "\u5287": 2308, "\u528d": 2309, "\u529b": 2310, "\u529e": 2311, "\u529f": 2312, "\u52a0": 2313, "\u52a1": 2314, "\u52a8": 2315, "\u52a9": 2316, "\u52b1": 2317, "\u52b3": 2318, "\u52b9": 2319, "\u52bf": 2320, "\u52c7": 2321, "\u52cb": 2322, "\u52d2": 2323, "\u52d5": 2324, "\u52d9": 2325, "\u52dd": 2326, "\u52df": 2327, "\u52e4": 2328, "\u52fa": 2329, "\u52fe": 2330, "\u5305": 2331, "\u5316": 2332, "\u5317": 2333, "\u5321": 2334, "\u5339": 2335, "\u533a": 2336, "\u533b": 2337, "\u533f": 2338, "\u5340": 2339, "\u5341": 2340, "\u5343": 2341, "\u5344": 2342, "\u5347": 2343, "\u5348": 2344, "\u534a": 2345, "\u534e": 2346, "\u534f": 2347, "\u5353": 2348, "\u5355": 2349, "\u5356": 2350, "\u5357": 2351, "\u5358": 2352, "\u535a": 2353, "\u535c": 2354, "\u535e": 2355, "\u5360": 2356, "\u5361": 2357, "\u5362": 2358, "\u5366": 2359, "\u5367": 2360, "\u536b": 2361, "\u5370": 2362, "\u5371": 2363, "\u5373": 2364, "\u5374": 2365, "\u5377": 2366, "\u537f": 2367, "\u5382": 2368, "\u5386": 2369, "\u5389": 2370, "\u538b": 2371, "\u538d": 2372, "\u5398": 2373, "\u539a": 2374, "\u539f": 2375, "\u53a6": 2376, "\u53bb": 2377, "\u53bf": 2378, "\u53c2": 2379, "\u53c3": 2380, "\u53c8": 2381, "\u53c9": 2382, "\u53ca": 2383, "\u53cb": 2384, "\u53cc": 2385, "\u53cd": 2386, "\u53ce": 2387, "\u53d1": 2388, "\u53d4": 2389, "\u53d6": 2390, "\u53d7": 2391, "\u53d8": 2392, "\u53e0": 2393, "\u53e3": 2394, "\u53e4": 2395, "\u53e5": 2396, "\u53e6": 2397, "\u53ea": 2398, "\u53eb": 2399, "\u53ec": 2400, "\u53ef": 2401, "\u53f0": 2402, "\u53f2": 2403, "\u53f3": 2404, "\u53f6": 2405, "\u53f7": 2406, "\u53f8": 2407, "\u5403": 2408, "\u5404": 2409, "\u5408": 2410, "\u5409": 2411, "\u540c": 2412, "\u540d": 2413, "\u540e": 2414, "\u5410": 2415, "\u5411": 2416, "\u5415": 2417, "\u5417": 2418, "\u541b": 2419, "\u541d": 2420, "\u541e": 2421, "\u5426": 2422, "\u5427": 2423, "\u542b": 2424, "\u542c": 2425, "\u542f": 2426, "\u5434": 2427, "\u5440": 2428, "\u544a": 2429, "\u5457": 2430, "\u5458": 2431, "\u5462": 2432, "\u5468": 2433, "\u5473": 2434, "\u547c": 2435, "\u547d": 2436, "\u548c": 2437, "\u548e": 2438, "\u548f": 2439, "\u5496": 2440, "\u54a8": 2441, "\u54b8": 2442, "\u54c1": 2443, "\u54c8": 2444, "\u54cd": 2445, "\u54d1": 2446, "\u54e5": 2447, "\u54ea": 2448, "\u54f2": 2449, "\u5510": 2450, "\u552e": 2451, "\u552f": 2452, "\u5531": 2453, "\u5546": 2454, "\u554a": 2455, "\u554f": 2456, "\u5561": 2457, "\u5565": 2458, "\u5566": 2459, "\u5580": 2460, "\u5584": 2461, "\u559c": 2462, "\u55ae": 2463, "\u55b7": 2464, "\u55bb": 2465, "\u55e3": 2466, "\u55ef": 2467, "\u5609": 2468, "\u5617": 2469, "\u5634": 2470, "\u5653": 2471, "\u5668": 2472, "\u566a": 2473, "\u56b4": 2474, "\u56db": 2475, "\u56de": 2476, "\u56e0": 2477, "\u56e2": 2478, "\u56e3": 2479, "\u56ed": 2480, "\u56f0": 2481, "\u56f2": 2482, "\u56f3": 2483, "\u56f4": 2484, "\u56fa": 2485, "\u56fd": 2486, "\u56fe": 2487, "\u5706": 2488, "\u5708": 2489, "\u570b": 2490, "\u5716": 2491, "\u571f": 2492, "\u5723": 2493, "\u5727": 2494, "\u5728": 2495, "\u572d": 2496, "\u5730": 2497, "\u5733": 2498, "\u573a": 2499, "\u5740": 2500, "\u5747": 2501, "\u574a": 2502, "\u574f": 2503, "\u5750": 2504, "\u5751": 2505, "\u5757": 2506, "\u575a": 2507, "\u575d": 2508, "\u5766": 2509, "\u5782": 2510, "\u578b": 2511, "\u5793": 2512, "\u57cb": 2513, "\u57ce": 2514, "\u57d5": 2515, "\u57df": 2516, "\u57e0": 2517, "\u57f9": 2518, "\u57fa": 2519, "\u5802": 2520, "\u5805": 2521, "\u5806": 2522, "\u5830": 2523, "\u5831": 2524, "\u5834": 2525, "\u5835": 2526, "\u5854": 2527, "\u5857": 2528, "\u5858": 2529, "\u585e": 2530, "\u5869": 2531, "\u586b": 2532, "\u5883": 2533, "\u5897": 2534, "\u589e": 2535, "\u58a8": 2536, "\u58c1": 2537, "\u58ca": 2538, "\u58e4": 2539, "\u58eb": 2540, "\u58ee": 2541, "\u58f0": 2542, "\u5904": 2543, "\u5907": 2544, "\u5909": 2545, "\u590d": 2546, "\u590f": 2547, "\u5914": 2548, "\u5916": 2549, "\u591a": 2550, "\u591c": 2551, "\u591f": 2552, "\u5927": 2553, "\u5929": 2554, "\u592a": 2555, "\u592e": 2556, "\u5931": 2557, "\u5934": 2558, "\u5939": 2559, "\u593e": 2560, "\u5947": 2561, "\u5949": 2562, "\u594b": 2563, "\u5951": 2564, "\u5956": 2565, "\u5957": 2566, "\u595a": 2567, "\u5965": 2568, "\u5973": 2569, "\u5974": 2570, "\u5979": 2571, "\u597d": 2572, "\u5982": 2573, "\u5986": 2574, "\u5988": 2575, "\u598d": 2576, "\u5996": 2577, "\u5999": 2578, "\u59a5": 2579, "\u59b9": 2580, "\u59cb": 2581, "\u59d3": 2582, "\u59d4": 2583, "\u59da": 2584, "\u59dc": 2585, "\u59e3": 2586, "\u59ec": 2587, "\u59ff": 2588, "\u5a01": 2589, "\u5a04": 2590, "\u5a05": 2591, "\u5a1c": 2592, "\u5a1f": 2593, "\u5a23": 2594, "\u5a25": 2595, "\u5a31": 2596, "\u5a34": 2597, "\u5a49": 2598, "\u5a55": 2599, "\u5a66": 2600, "\u5a74": 2601, "\u5a75": 2602, "\u5a77": 2603, "\u5a92": 2604, "\u5a9b": 2605, "\u5acc": 2606, "\u5ae9": 2607, "\u5b50": 2608, "\u5b54": 2609, "\u5b57": 2610, "\u5b58": 2611, "\u5b59": 2612, "\u5b5c": 2613, "\u5b5d": 2614, "\u5b5f": 2615, "\u5b63": 2616, "\u5b66": 2617, "\u5b69": 2618, "\u5b78": 2619, "\u5b81": 2620, "\u5b83": 2621, "\u5b85": 2622, "\u5b87": 2623, "\u5b88": 2624, "\u5b89": 2625, "\u5b8b": 2626, "\u5b8c": 2627, "\u5b8f": 2628, "\u5b93": 2629, "\u5b97": 2630, "\u5b98": 2631, "\u5b9a": 2632, "\u5b9c": 2633, "\u5b9d": 2634, "\u5b9e": 2635, "\u5b9f": 2636, "\u5ba0": 2637, "\u5ba1": 2638, "\u5ba2": 2639, "\u5ba3": 2640, "\u5ba4": 2641, "\u5ba6": 2642, "\u5bab": 2643, "\u5bb0": 2644, "\u5bb6": 2645, "\u5bb9": 2646, "\u5bbd": 2647, "\u5bbe": 2648, "\u5bbf": 2649, "\u5bc4": 2650, "\u5bc6": 2651, "\u5bc7": 2652, "\u5bcc": 2653, "\u5bd2": 2654, "\u5bdf": 2655, "\u5be6": 2656, "\u5beb": 2657, "\u5bf8": 2658, "\u5bf9": 2659, "\u5bfa": 2660, "\u5bfb": 2661, "\u5bfc": 2662, "\u5bfe": 2663, "\u5bff": 2664, "\u5c01": 2665, "\u5c04": 2666, "\u5c06": 2667, "\u5c09": 2668, "\u5c0b": 2669, "\u5c0d": 2670, "\u5c0f": 2671, "\u5c11": 2672, "\u5c14": 2673, "\u5c1a": 2674, "\u5c1d": 2675, "\u5c24": 2676, "\u5c27": 2677, "\u5c31": 2678, "\u5c39": 2679, "\u5c3a": 2680, "\u5c3b": 2681, "\u5c3d": 2682, "\u5c3e": 2683, "\u5c40": 2684, "\u5c42": 2685, "\u5c45": 2686, "\u5c48": 2687, "\u5c4b": 2688, "\u5c4f": 2689, "\u5c55": 2690, "\u5c5e": 2691, "\u5c60": 2692, "\u5c64": 2693, "\u5c65": 2694, "\u5c71": 2695, "\u5c7f": 2696, "\u5c81": 2697, "\u5c91": 2698, "\u5c97": 2699, "\u5c9a": 2700, "\u5c9b": 2701, "\u5ca9": 2702, "\u5cad": 2703, "\u5cb3": 2704, "\u5cc4": 2705, "\u5ce1": 2706, "\u5cea": 2707, "\u5cf0": 2708, "\u5cf6": 2709, "\u5d07": 2710, "\u5d14": 2711, "\u5d29": 2712, "\u5d47": 2713, "\u5d4c": 2714, "\u5ddd": 2715, "\u5dde": 2716, "\u5de2": 2717, "\u5de5": 2718, "\u5de6": 2719, "\u5de7": 2720, "\u5de8": 2721, "\u5de9": 2722, "\u5deb": 2723, "\u5dee": 2724, "\u5df1": 2725, "\u5df2": 2726, "\u5df4": 2727, "\u5e01": 2728, "\u5e02": 2729, "\u5e03": 2730, "\u5e05": 2731, "\u5e08": 2732, "\u5e0c": 2733, "\u5e10": 2734, "\u5e26": 2735, "\u5e2b": 2736, "\u5e2d": 2737, "\u5e2e": 2738, "\u5e30": 2739, "\u5e33": 2740, "\u5e38": 2741, "\u5e42": 2742, "\u5e45": 2743, "\u5e55": 2744, "\u5e72": 2745, "\u5e73": 2746, "\u5e74": 2747, "\u5e76": 2748, "\u5e78": 2749, "\u5e79": 2750, "\u5e7d": 2751, "\u5e7e": 2752, "\u5e7f": 2753, "\u5e84": 2754, "\u5e86": 2755, "\u5e8f": 2756, "\u5e93": 2757, "\u5e94": 2758, "\u5e95": 2759, "\u5e97": 2760, "\u5e99": 2761, "\u5e9a": 2762, "\u5e9c": 2763, "\u5e9e": 2764, "\u5e9f": 2765, "\u5ea6": 2766, "\u5ea7": 2767, "\u5eab": 2768, "\u5ead": 2769, "\u5eb5": 2770, "\u5eb7": 2771, "\u5eb8": 2772, "\u5ec9": 2773, "\u5eca": 2774, "\u5ed3": 2775, "\u5ed6": 2776, "\u5ef6": 2777, "\u5efa": 2778, "\u5f00": 2779, "\u5f02": 2780, "\u5f03": 2781, "\u5f0f": 2782, "\u5f13": 2783, "\u5f15": 2784, "\u5f16": 2785, "\u5f18": 2786, "\u5f1f": 2787, "\u5f20": 2788, "\u5f26": 2789, "\u5f2f": 2790, "\u5f31": 2791, "\u5f35": 2792, "\u5f37": 2793, "\u5f39": 2794, "\u5f3a": 2795, "\u5f52": 2796, "\u5f53": 2797, "\u5f55": 2798, "\u5f62": 2799, "\u5f66": 2800, "\u5f69": 2801, "\u5f6a": 2802, "\u5f6c": 2803, "\u5f6d": 2804, "\u5f70": 2805, "\u5f71": 2806, "\u5f79": 2807, "\u5f7c": 2808, "\u5f80": 2809, "\u5f81": 2810, "\u5f84": 2811, "\u5f85": 2812, "\u5f88": 2813, "\u5f8b": 2814, "\u5f8c": 2815, "\u5f90": 2816, "\u5f92": 2817, "\u5f93": 2818, "\u5f97": 2819, "\u5f99": 2820, "\u5f9e": 2821, "\u5fa1": 2822, "\u5fa9": 2823, "\u5faa": 2824, "\u5fae": 2825, "\u5fb4": 2826, "\u5fb7": 2827, "\u5fbd": 2828, "\u5fc3": 2829, "\u5fc5": 2830, "\u5fcd": 2831, "\u5fd7": 2832, "\u5fd8": 2833, "\u5fd9": 2834, "\u5fdc": 2835, "\u5fe0": 2836, "\u5fe7": 2837, "\u5feb": 2838, "\u5ff5": 2839, "\u5ffb": 2840, "\u5ffd": 2841, "\u6000": 2842, "\u6001": 2843, "\u600e": 2844, "\u6012": 2845, "\u601d": 2846, "\u6021": 2847, "\u6025": 2848, "\u6027": 2849, "\u602a": 2850, "\u603b": 2851, "\u6052": 2852, "\u6062": 2853, "\u6069": 2854, "\u606d": 2855, "\u606f": 2856, "\u6089": 2857, "\u609f": 2858, "\u60a6": 2859, "\u60a8": 2860, "\u60aa": 2861, "\u60c5": 2862, "\u60dc": 2863, "\u60e0": 2864, "\u60f3": 2865, "\u6109": 2866, "\u610f": 2867, "\u611f": 2868, "\u613f": 2869, "\u6148": 2870, "\u614b": 2871, "\u614c": 2872, "\u614e": 2873, "\u6155": 2874, "\u6162": 2875, "\u6167": 2876, "\u616e": 2877, "\u61b6": 2878, "\u61c9": 2879, "\u61d2": 2880, "\u6208": 2881, "\u620e": 2882, "\u620f": 2883, "\u6210": 2884, "\u6211": 2885, "\u6216": 2886, "\u6218": 2887, "\u621a": 2888, "\u6226": 2889, "\u622a": 2890, "\u6233": 2891, "\u6234": 2892, "\u6237": 2893, "\u623b": 2894, "\u623f": 2895, "\u6240": 2896, "\u6241": 2897, "\u6247": 2898, "\u6248": 2899, "\u624b": 2900, "\u624c": 2901, "\u624d": 2902, "\u6252": 2903, "\u6253": 2904, "\u6258": 2905, "\u6263": 2906, "\u6267": 2907, "\u6269": 2908, "\u626b": 2909, "\u626c": 2910, "\u626d": 2911, "\u6270": 2912, "\u6271": 2913, "\u6276": 2914, "\u6279": 2915, "\u627e": 2916, "\u627f": 2917, "\u6280": 2918, "\u628a": 2919, "\u6291": 2920, "\u6293": 2921, "\u6295": 2922, "\u6298": 2923, "\u629a": 2924, "\u629b": 2925, "\u629c": 2926, "\u629e": 2927, "\u62a4": 2928, "\u62a5": 2929, "\u62ab": 2930, "\u62ac": 2931, "\u62b5": 2932, "\u62bc": 2933, "\u62bd": 2934, "\u62c5": 2935, "\u62c6": 2936, "\u62c9": 2937, "\u62d0": 2938, "\u62d2": 2939, "\u62d3": 2940, "\u62d4": 2941, "\u62d6": 2942, "\u62db": 2943, "\u62df": 2944, "\u62e1": 2945, "\u62e5": 2946, "\u62e8": 2947, "\u62e9": 2948, "\u62ec": 2949, "\u62f7": 2950, "\u62fc": 2951, "\u62fd": 2952, "\u62ff": 2953, "\u6301": 2954, "\u6302": 2955, "\u6307": 2956, "\u6309": 2957, "\u6311": 2958, "\u6319": 2959, "\u631f": 2960, "\u632f": 2961, "\u6349": 2962, "\u6355": 2963, "\u635f": 2964, "\u6362": 2965, "\u6368": 2966, "\u636e": 2967, "\u6377": 2968, "\u6383": 2969, "\u6388": 2970, "\u6389": 2971, "\u6392": 2972, "\u6396": 2973, "\u6398": 2974, "\u639b": 2975, "\u63a2": 2976, "\u63a5": 2977, "\u63a7": 2978, "\u63a8": 2979, "\u63aa": 2980, "\u63b4": 2981, "\u63c3": 2982, "\u63cf": 2983, "\u63d0": 2984, "\u63d2": 2985, "\u63db": 2986, "\u63e1": 2987, "\u63ed": 2988, "\u640d": 2989, "\u641c": 2990, "\u641e": 2991, "\u642d": 2992, "\u643a": 2993, "\u643e": 2994, "\u6444": 2995, "\u6446": 2996, "\u6447": 2997, "\u6458": 2998, "\u6483": 2999, "\u64a4": 3000, "\u64ad": 3001, "\u64ae": 3002, "\u64c7": 3003, "\u64cd": 3004, "\u64ce": 3005, "\u64da": 3006, "\u6500": 3007, "\u652f": 3008, "\u6536": 3009, "\u6537": 3010, "\u6539": 3011, "\u653b": 3012, "\u653e": 3013, "\u653f": 3014, "\u6545": 3015, "\u6548": 3016, "\u654f": 3017, "\u6556": 3018, "\u6559": 3019, "\u6563": 3020, "\u6566": 3021, "\u656c": 3022, "\u6570": 3023, "\u6574": 3024, "\u6575": 3025, "\u6577": 3026, "\u6578": 3027, "\u6587": 3028, "\u658c": 3029, "\u6590": 3030, "\u6599": 3031, "\u659c": 3032, "\u65ad": 3033, "\u65af": 3034, "\u65b0": 3035, "\u65b7": 3036, "\u65b9": 3037, "\u65bc": 3038, "\u65bd": 3039, "\u65c5": 3040, "\u65cb": 3041, "\u65cc": 3042, "\u65cf": 3043, "\u65d7": 3044, "\u65e0": 3045, "\u65e2": 3046, "\u65e5": 3047, "\u65e6": 3048, "\u65e7": 3049, "\u65e9": 3050, "\u65ed": 3051, "\u65f6": 3052, "\u65fa": 3053, "\u6606": 3054, "\u6607": 3055, "\u660c": 3056, "\u660e": 3057, "\u6613": 3058, "\u661f": 3059, "\u6620": 3060, "\u6625": 3061, "\u6628": 3062, "\u662d": 3063, "\u662f": 3064, "\u6635": 3065, "\u663e": 3066, "\u6641": 3067, "\u6642": 3068, "\u664b": 3069, "\u664f": 3070, "\u6653": 3071, "\u6655": 3072, "\u665a": 3073, "\u6668": 3074, "\u666e": 3075, "\u666f": 3076, "\u6676": 3077, "\u667a": 3078, "\u6682": 3079, "\u66a8": 3080, "\u66b4": 3081, "\u66d9": 3082, "\u66dc": 3083, "\u66f2": 3084, "\u66f3": 3085, "\u66f4": 3086, "\u66f8": 3087, "\u66f9": 3088, "\u66fe": 3089, "\u66ff": 3090, "\u6700": 3091, "\u6703": 3092, "\u6708": 3093, "\u6709": 3094, "\u670b": 3095, "\u670d": 3096, "\u6710": 3097, "\u6714": 3098, "\u6717": 3099, "\u671b": 3100, "\u671d": 3101, "\u671f": 3102, "\u6728": 3103, "\u672a": 3104, "\u672b": 3105, "\u672c": 3106, "\u672f": 3107, "\u6731": 3108, "\u6734": 3109, "\u673a": 3110, "\u6742": 3111, "\u6743": 3112, "\u6746": 3113, "\u674e": 3114, "\u6750": 3115, "\u6751": 3116, "\u675c": 3117, "\u675f": 3118, "\u6760": 3119, "\u6761": 3120, "\u6765": 3121, "\u6768": 3122, "\u676d": 3123, "\u6770": 3124, "\u6771": 3125, "\u677e": 3126, "\u677f": 3127, "\u6781": 3128, "\u6784": 3129, "\u6790": 3130, "\u6797": 3131, "\u679a": 3132, "\u679c": 3133, "\u679d": 3134, "\u67a3": 3135, "\u67ab": 3136, "\u67b6": 3137, "\u67c4": 3138, "\u67cf": 3139, "\u67d0": 3140, "\u67d3": 3141, "\u67d4": 3142, "\u67e5": 3143, "\u67ef": 3144, "\u67f1": 3145, "\u67f3": 3146, "\u67f4": 3147, "\u67fb": 3148, "\u6804": 3149, "\u6807": 3150, "\u6808": 3151, "\u680b": 3152, "\u680f": 3153, "\u6811": 3154, "\u6821": 3155, "\u682a": 3156, "\u6837": 3157, "\u6838": 3158, "\u6839": 3159, "\u683c": 3160, "\u683e": 3161, "\u6841": 3162, "\u6842": 3163, "\u6846": 3164, "\u6848": 3165, "\u684c": 3166, "\u6851": 3167, "\u6853": 3168, "\u6854": 3169, "\u6863": 3170, "\u6865": 3171, "\u6876": 3172, "\u6881": 3173, "\u6885": 3174, "\u6893": 3175, "\u68a6": 3176, "\u68a7": 3177, "\u68a8": 3178, "\u68b0": 3179, "\u68c0": 3180, "\u68c9": 3181, "\u68d2": 3182, "\u68e3": 3183, "\u68f2": 3184, "\u690d": 3185, "\u691c": 3186, "\u695a": 3187, "\u695e": 3188, "\u6960": 3189, "\u696d": 3190, "\u6975": 3191, "\u6982": 3192, "\u6986": 3193, "\u6995": 3194, "\u699c": 3195, "\u69ae": 3196, "\u69cb": 3197, "\u69d8": 3198, "\u6a0a": 3199, "\u6a19": 3200, "\u6a21": 3201, "\u6a23": 3202, "\u6a29": 3203, "\u6a2a": 3204, "\u6a4b": 3205, "\u6a5f": 3206, "\u6a61": 3207, "\u6a94": 3208, "\u6aa2": 3209, "\u6b04": 3210, "\u6b20": 3211, "\u6b21": 3212, "\u6b22": 3213, "\u6b23": 3214, "\u6b27": 3215, "\u6b32": 3216, "\u6b3e": 3217, "\u6b47": 3218, "\u6b4c": 3219, "\u6b62": 3220, "\u6b63": 3221, "\u6b64": 3222, "\u6b65": 3223, "\u6b66": 3224, "\u6b69": 3225, "\u6b6a": 3226, "\u6b73": 3227, "\u6b7b": 3228, "\u6b8a": 3229, "\u6b8b": 3230, "\u6bb3": 3231, "\u6bb4": 3232, "\u6bb5": 3233, "\u6bb7": 3234, "\u6bba": 3235, "\u6bc1": 3236, "\u6bc5": 3237, "\u6bcb": 3238, "\u6bcd": 3239, "\u6bce": 3240, "\u6bcf": 3241, "\u6bd2": 3242, "\u6bd3": 3243, "\u6bd4": 3244, "\u6bd5": 3245, "\u6bdb": 3246, "\u6beb": 3247, "\u6c11": 3248, "\u6c14": 3249, "\u6c17": 3250, "\u6c34": 3251, "\u6c35": 3252, "\u6c38": 3253, "\u6c40": 3254, "\u6c42": 3255, "\u6c47": 3256, "\u6c49": 3257, "\u6c55": 3258, "\u6c57": 3259, "\u6c5d": 3260, "\u6c5f": 3261, "\u6c60": 3262, "\u6c61": 3263, "\u6c64": 3264, "\u6c6a": 3265, "\u6c70": 3266, "\u6c72": 3267, "\u6c76": 3268, "\u6c7a": 3269, "\u6c7d": 3270, "\u6c7e": 3271, "\u6c82": 3272, "\u6c83": 3273, "\u6c88": 3274, "\u6c89": 3275, "\u6c92": 3276, "\u6c99": 3277, "\u6c9b": 3278, "\u6c9f": 3279, "\u6ca1": 3280, "\u6ca7": 3281, "\u6caa": 3282, "\u6cb3": 3283, "\u6cb9": 3284, "\u6cbb": 3285, "\u6cbc": 3286, "\u6cbd": 3287, "\u6cbe": 3288, "\u6cbf": 3289, "\u6cc1": 3290, "\u6cc4": 3291, "\u6cc9": 3292, "\u6cca": 3293, "\u6cd5": 3294, "\u6cd7": 3295, "\u6cdb": 3296, "\u6ce1": 3297, "\u6ce2": 3298, "\u6ce8": 3299, "\u6cf0": 3300, "\u6cf8": 3301, "\u6cfd": 3302, "\u6d01": 3303, "\u6d17": 3304, "\u6d1b": 3305, "\u6d1e": 3306, "\u6d25": 3307, "\u6d2a": 3308, "\u6d2e": 3309, "\u6d31": 3310, "\u6d32": 3311, "\u6d3b": 3312, "\u6d3e": 3313, "\u6d41": 3314, "\u6d45": 3315, "\u6d4b": 3316, "\u6d4e": 3317, "\u6d4f": 3318, "\u6d59": 3319, "\u6d66": 3320, "\u6d69": 3321, "\u6d6a": 3322, "\u6d6e": 3323, "\u6d77": 3324, "\u6d82": 3325, "\u6d88": 3326, "\u6d89": 3327, "\u6d9b": 3328, "\u6da6": 3329, "\u6da8": 3330, "\u6dc0": 3331, "\u6dc4": 3332, "\u6dd1": 3333, "\u6dd6": 3334, "\u6dd8": 3335, "\u6dde": 3336, "\u6dee": 3337, "\u6df1": 3338, "\u6df3": 3339, "\u6df7": 3340, "\u6dfb": 3341, "\u6e05": 3342, "\u6e08": 3343, "\u6e10": 3344, "\u6e1b": 3345, "\u6e20": 3346, "\u6e21": 3347, "\u6e24": 3348, "\u6e29": 3349, "\u6e2c": 3350, "\u6e2d": 3351, "\u6e2f": 3352, "\u6e32": 3353, "\u6e38": 3354, "\u6e3a": 3355, "\u6e56": 3356, "\u6e58": 3357, "\u6e5b": 3358, "\u6e7e": 3359, "\u6e80": 3360, "\u6e90": 3361, "\u6e96": 3362, "\u6ea2": 3363, "\u6eaa": 3364, "\u6eaf": 3365, "\u6ec1": 3366, "\u6ec5": 3367, "\u6ecb": 3368, "\u6ed1": 3369, "\u6ed5": 3370, "\u6eda": 3371, "\u6ee1": 3372, "\u6ee2": 3373, "\u6ee4": 3374, "\u6ee5": 3375, "\u6ee8": 3376, "\u6eff": 3377, "\u6f02": 3378, "\u6f06": 3379, "\u6f0f": 3380, "\u6f14": 3381, "\u6f22": 3382, "\u6f2b": 3383, "\u6f2f": 3384, "\u6f32": 3385, "\u6f33": 3386, "\u6f4d": 3387, "\u6f58": 3388, "\u6f6d": 3389, "\u6f6e": 3390, "\u6f84": 3391, "\u6f97": 3392, "\u6f9c": 3393, "\u6fb3": 3394, "\u6fb9": 3395, "\u6fc0": 3396, "\u6fc1": 3397, "\u6fc3": 3398, "\u6fee": 3399, "\u6ffe": 3400, "\u7063": 3401, "\u706b": 3402, "\u706f": 3403, "\u7070": 3404, "\u7075": 3405, "\u708e": 3406, "\u70b9": 3407, "\u70ba": 3408, "\u70df": 3409, "\u70ed": 3410, "\u70ef": 3411, "\u7121": 3412, "\u7126": 3413, "\u7136": 3414, "\u7164": 3415, "\u7167": 3416, "\u718a": 3417, "\u719f": 3418, "\u71b1": 3419, "\u71b5": 3420, "\u71d5": 3421, "\u7206": 3422, "\u722a": 3423, "\u722c": 3424, "\u7231": 3425, "\u7235": 3426, "\u7236": 3427, "\u723d": 3428, "\u7247": 3429, "\u7248": 3430, "\u724c": 3431, "\u725b": 3432, "\u725f": 3433, "\u7261": 3434, "\u7267": 3435, "\u7269": 3436, "\u7279": 3437, "\u7280": 3438, "\u7281": 3439, "\u72b6": 3440, "\u72c4": 3441, "\u72d0": 3442, "\u72d7": 3443, "\u72ec": 3444, "\u731b": 3445, "\u732a": 3446, "\u732b": 3447, "\u7363": 3448, "\u7372": 3449, "\u7387": 3450, "\u7389": 3451, "\u738b": 3452, "\u739b": 3453, "\u73a9": 3454, "\u73af": 3455, "\u73b0": 3456, "\u73b2": 3457, "\u73ca": 3458, "\u73cd": 3459, "\u73e0": 3460, "\u73ed": 3461, "\u73fe": 3462, "\u7403": 3463, "\u7406": 3464, "\u741b": 3465, "\u7426": 3466, "\u742c": 3467, "\u7430": 3468, "\u7433": 3469, "\u7434": 3470, "\u743c": 3471, "\u7457": 3472, "\u745e": 3473, "\u7476": 3474, "\u747e": 3475, "\u7490": 3476, "\u74a7": 3477, "\u74a9": 3478, "\u74b0": 3479, "\u74e3": 3480, "\u74f6": 3481, "\u7504": 3482, "\u7518": 3483, "\u751a": 3484, "\u751f": 3485, "\u7528": 3486, "\u752b": 3487, "\u7530": 3488, "\u7531": 3489, "\u7532": 3490, "\u7533": 3491, "\u7535": 3492, "\u7537": 3493, "\u753b": 3494, "\u7545": 3495, "\u754c": 3496, "\u7559": 3497, "\u7565": 3498, "\u756a": 3499, "\u7570": 3500, "\u7573": 3501, "\u7576": 3502, "\u7586": 3503, "\u758f": 3504, "\u75ab": 3505, "\u75c5": 3506, "\u7652": 3507, "\u767a": 3508, "\u767b": 3509, "\u767c": 3510, "\u767d": 3511, "\u767e": 3512, "\u7684": 3513, "\u7687": 3514, "\u76ae": 3515, "\u76b1": 3516, "\u76c8": 3517, "\u76ca": 3518, "\u76d0": 3519, "\u76d1": 3520, "\u76d6": 3521, "\u76d8": 3522, "\u76db": 3523, "\u76df": 3524, "\u76e4": 3525, "\u76ee": 3526, "\u76f4": 3527, "\u76f8": 3528, "\u7701": 3529, "\u7709": 3530, "\u770b": 3531, "\u771f": 3532, "\u7720": 3533, "\u773c": 3534, "\u7740": 3535, "\u7761": 3536, "\u7763": 3537, "\u778e": 3538, "\u77ac": 3539, "\u77bf": 3540, "\u77e2": 3541, "\u77e5": 3542, "\u77e9": 3543, "\u77ed": 3544, "\u77f3": 3545, "\u7801": 3546, "\u7814": 3547, "\u7816": 3548, "\u7834": 3549, "\u7840": 3550, "\u7855": 3551, "\u786c": 3552, "\u786e": 3553, "\u788c": 3554, "\u78b0": 3555, "\u78b1": 3556, "\u78b3": 3557, "\u78ba": 3558, "\u78bc": 3559, "\u78c1": 3560, "\u78ca": 3561, "\u793a": 3562, "\u793c": 3563, "\u793e": 3564, "\u7941": 3565, "\u7948": 3566, "\u7956": 3567, "\u795a": 3568, "\u795d": 3569, "\u795e": 3570, "\u7965": 3571, "\u7968": 3572, "\u7981": 3573, "\u7984": 3574, "\u798f": 3575, "\u79b9": 3576, "\u79bb": 3577, "\u79c0": 3578, "\u79c1": 3579, "\u79cb": 3580, "\u79cd": 3581, "\u79d1": 3582, "\u79d2": 3583, "\u79d8": 3584, "\u79df": 3585, "\u79e6": 3586, "\u79e9": 3587, "\u79ef": 3588, "\u79f0": 3589, "\u79fb": 3590, "\u7a00": 3591, "\u7a0b": 3592, "\u7a0e": 3593, "\u7a2e": 3594, "\u7a31": 3595, "\u7a33": 3596, "\u7a3f": 3597, "\u7a46": 3598, "\u7a4d": 3599, "\u7a63": 3600, "\u7a76": 3601, "\u7a77": 3602, "\u7a7a": 3603, "\u7a7f": 3604, "\u7a81": 3605, "\u7a97": 3606, "\u7a9d": 3607, "\u7aa6": 3608, "\u7acb": 3609, "\u7ad6": 3610, "\u7ad9": 3611, "\u7adc": 3612, "\u7ade": 3613, "\u7ae0": 3614, "\u7ae5": 3615, "\u7aef": 3616, "\u7af9": 3617, "\u7afa": 3618, "\u7b11": 3619, "\u7b14": 3620, "\u7b26": 3621, "\u7b2a": 3622, "\u7b2c": 3623, "\u7b46": 3624, "\u7b49": 3625, "\u7b50": 3626, "\u7b54": 3627, "\u7b56": 3628, "\u7b5b": 3629, "\u7b60": 3630, "\u7b7e": 3631, "\u7b80": 3632, "\u7b87": 3633, "\u7b97": 3634, "\u7ba1": 3635, "\u7bad": 3636, "\u7bb1": 3637, "\u7bc0": 3638, "\u7bc4": 3639, "\u7bc7": 3640, "\u7bc9": 3641, "\u7bee": 3642, "\u7c07": 3643, "\u7c21": 3644, "\u7c2b": 3645, "\u7c4d": 3646, "\u7c73": 3647, "\u7c7b": 3648, "\u7c7d": 3649, "\u7c89": 3650, "\u7c92": 3651, "\u7c95": 3652, "\u7c97": 3653, "\u7c98": 3654, "\u7ca4": 3655, "\u7cb1": 3656, "\u7cb3": 3657, "\u7cbe": 3658, "\u7cd6": 3659, "\u7cdc": 3660, "\u7cf9": 3661, "\u7cfb": 3662, "\u7d04": 3663, "\u7d05": 3664, "\u7d0d": 3665, "\u7d20": 3666, "\u7d22": 3667, "\u7d27": 3668, "\u7d2b": 3669, "\u7d2f": 3670, "\u7d30": 3671, "\u7d39": 3672, "\u7d42": 3673, "\u7d44": 3674, "\u7d4c": 3675, "\u7d50": 3676, "\u7d66": 3677, "\u7d71": 3678, "\u7d76": 3679, "\u7d93": 3680, "\u7d99": 3681, "\u7d9a": 3682, "\u7db1": 3683, "\u7db2": 3684, "\u7dbb": 3685, "\u7dcf": 3686, "\u7dd1": 3687, "\u7dd2": 3688, "\u7dda": 3689, "\u7df4": 3690, "\u7e23": 3691, "\u7e26": 3692, "\u7e2e": 3693, "\u7e3d": 3694, "\u7e3e": 3695, "\u7e41": 3696, "\u7e4b": 3697, "\u7e6b": 3698, "\u7e70": 3699, "\u7e73": 3700, "\u7e7c": 3701, "\u7e8c": 3702, "\u7e8f": 3703, "\u7ea2": 3704, "\u7ea6": 3705, "\u7ea7": 3706, "\u7ea8": 3707, "\u7eaa": 3708, "\u7eac": 3709, "\u7eaf": 3710, "\u7eb2": 3711, "\u7eb3": 3712, "\u7eb5": 3713, "\u7eb9": 3714, "\u7eba": 3715, "\u7ebf": 3716, "\u7ec3": 3717, "\u7ec4": 3718, "\u7ec6": 3719, "\u7ec7": 3720, "\u7ec8": 3721, "\u7ecd": 3722, "\u7ecf": 3723, "\u7ed1": 3724, "\u7ed3": 3725, "\u7ed5": 3726, "\u7ed8": 3727, "\u7ed9": 3728, "\u7edc": 3729, "\u7edd": 3730, "\u7edf": 3731, "\u7ee3": 3732, "\u7ee5": 3733, "\u7ee7": 3734, "\u7ee9": 3735, "\u7eea": 3736, "\u7eed": 3737, "\u7ef4": 3738, "\u7ef5": 3739, "\u7efc": 3740, "\u7f00": 3741, "\u7f11": 3742, "\u7f13": 3743, "\u7f16": 3744, "\u7f18": 3745, "\u7f29": 3746, "\u7f2a": 3747, "\u7f3a": 3748, "\u7f51": 3749, "\u7f57": 3750, "\u7f58": 3751, "\u7f5a": 3752, "\u7f6e": 3753, "\u7f72": 3754, "\u7f8a": 3755, "\u7f8e": 3756, "\u7fa4": 3757, "\u7fa9": 3758, "\u7fbd": 3759, "\u7fbf": 3760, "\u7fc1": 3761, "\u7fcc": 3762, "\u7fd2": 3763, "\u7fd4": 3764, "\u7fdf": 3765, "\u7fe0": 3766, "\u7ff0": 3767, "\u7ffb": 3768, "\u8000": 3769, "\u8001": 3770, "\u8003": 3771, "\u8005": 3772, "\u800c": 3773, "\u800d": 3774, "\u8010": 3775, "\u8017": 3776, "\u8036": 3777, "\u803f": 3778, "\u8042": 3779, "\u804a": 3780, "\u804c": 3781, "\u8054": 3782, "\u8058": 3783, "\u805a": 3784, "\u806a": 3785, "\u806f": 3786, "\u8077": 3787, "\u8083": 3788, "\u8087": 3789, "\u8089": 3790, "\u80a1": 3791, "\u80a2": 3792, "\u80a5": 3793, "\u80af": 3794, "\u80b2": 3795, "\u80ba": 3796, "\u80cc": 3797, "\u80dc": 3798, "\u80e1": 3799, "\u80e5": 3800, "\u80f6": 3801, "\u80fd": 3802, "\u8111": 3803, "\u811a": 3804, "\u8131": 3805, "\u8138": 3806, "\u8170": 3807, "\u817e": 3808, "\u81c2": 3809, "\u81e7": 3810, "\u81ea": 3811, "\u81ed": 3812, "\u81f3": 3813, "\u81f4": 3814, "\u81fe": 3815, "\u8206": 3816, "\u8207": 3817, "\u820a": 3818, "\u820c": 3819, "\u820d": 3820, "\u8212": 3821, "\u821f": 3822, "\u822a": 3823, "\u822c": 3824, "\u8239": 3825, "\u826f": 3826, "\u8272": 3827, "\u8273": 3828, "\u827a": 3829, "\u827e": 3830, "\u8282": 3831, "\u8299": 3832, "\u829c": 3833, "\u829d": 3834, "\u82a6": 3835, "\u82ac": 3836, "\u82ae": 3837, "\u82af": 3838, "\u82b1": 3839, "\u82b3": 3840, "\u82b8": 3841, "\u82cd": 3842, "\u82cf": 3843, "\u82d1": 3844, "\u82d7": 3845, "\u82e5": 3846, "\u82e6": 3847, "\u82ef": 3848, "\u82f1": 3849, "\u82f9": 3850, "\u8302": 3851, "\u8303": 3852, "\u8305": 3853, "\u830c": 3854, "\u8317": 3855, "\u831c": 3856, "\u8332": 3857, "\u8336": 3858, "\u8339": 3859, "\u8340": 3860, "\u8346": 3861, "\u8349": 3862, "\u8350": 3863, "\u8354": 3864, "\u8361": 3865, "\u8363": 3866, "\u836f": 3867, "\u8377": 3868, "\u8386": 3869, "\u8389": 3870, "\u838e": 3871, "\u8392": 3872, "\u8398": 3873, "\u839e": 3874, "\u83ab": 3875, "\u83b1": 3876, "\u83b2": 3877, "\u83b7": 3878, "\u83ba": 3879, "\u83c1": 3880, "\u83ca": 3881, "\u83cf": 3882, "\u83dc": 3883, "\u83f2": 3884, "\u840c": 3885, "\u840d": 3886, "\u8425": 3887, "\u8427": 3888, "\u8428": 3889, "\u843d": 3890, "\u8449": 3891, "\u8457": 3892, "\u845b": 3893, "\u8463": 3894, "\u846b": 3895, "\u848b": 3896, "\u8499": 3897, "\u84af": 3898, "\u84b2": 3899, "\u84c9": 3900, "\u84d3": 3901, "\u84dd": 3902, "\u84df": 3903, "\u84ec": 3904, "\u851a": 3905, "\u8521": 3906, "\u853a": 3907, "\u8549": 3908, "\u854a": 3909, "\u8574": 3910, "\u8584": 3911, "\u8587": 3912, "\u859b": 3913, "\u85cf": 3914, "\u864e": 3915, "\u864f": 3916, "\u8651": 3917, "\u8655": 3918, "\u865a": 3919, "\u865e": 3920, "\u865f": 3921, "\u866b": 3922, "\u8679": 3923, "\u8681": 3924, "\u868c": 3925, "\u86cb": 3926, "\u86d9": 3927, "\u874e": 3928, "\u878d": 3929, "\u8815": 3930, "\u884c": 3931, "\u8854": 3932, "\u8857": 3933, "\u8861": 3934, "\u8862": 3935, "\u8863": 3936, "\u8865": 3937, "\u8868": 3938, "\u886b": 3939, "\u886c": 3940, "\u8877": 3941, "\u8881": 3942, "\u88ab": 3943, "\u88ad": 3944, "\u88c1": 3945, "\u88c5": 3946, "\u88d5": 3947, "\u88d8": 3948, "\u88dc": 3949, "\u88e1": 3950, "\u88f4": 3951, "\u88fd": 3952, "\u8907": 3953, "\u891a": 3954, "\u8944": 3955, "\u897f": 3956, "\u8981": 3957, "\u8986": 3958, "\u898b": 3959, "\u898f": 3960, "\u8996": 3961, "\u899a": 3962, "\u89a7": 3963, "\u89aa": 3964, "\u89bd": 3965, "\u89c1": 3966, "\u89c2": 3967, "\u89c4": 3968, "\u89c6": 3969, "\u89c8": 3970, "\u89d2": 3971, "\u89e3": 3972, "\u89e6": 3973, "\u8a00": 3974, "\u8a08": 3975, "\u8a0a": 3976, "\u8a13": 3977, "\u8a18": 3978, "\u8a2a": 3979, "\u8a2d": 3980, "\u8a31": 3981, "\u8a3c": 3982, "\u8a3e": 3983, "\u8a55": 3984, "\u8a5e": 3985, "\u8a62": 3986, "\u8a66": 3987, "\u8a70": 3988, "\u8a72": 3989, "\u8a73": 3990, "\u8a79": 3991, "\u8a89": 3992, "\u8a8d": 3993, "\u8a9e": 3994, "\u8aac": 3995, "\u8aad": 3996, "\u8ab2": 3997, "\u8abf": 3998, "\u8acb": 3999, "\u8ad6": 4000, "\u8af8": 4001, "\u8afa": 4002, "\u8b1b": 4003, "\u8b39": 4004, "\u8b66": 4005, "\u8b6c": 4006, "\u8b70": 4007, "\u8b77": 4008, "\u8b80": 4009, "\u8b8a": 4010, "\u8ba1": 4011, "\u8ba2": 4012, "\u8ba4": 4013, "\u8ba8": 4014, "\u8ba9": 4015, "\u8bad": 4016, "\u8bae": 4017, "\u8baf": 4018, "\u8bb0": 4019, "\u8bb8": 4020, "\u8bba": 4021, "\u8bbc": 4022, "\u8bbe": 4023, "\u8bbf": 4024, "\u8bc1": 4025, "\u8bc4": 4026, "\u8bc6": 4027, "\u8bc9": 4028, "\u8bca": 4029, "\u8bcd": 4030, "\u8bd1": 4031, "\u8bd5": 4032, "\u8bda": 4033, "\u8bdd": 4034, "\u8be2": 4035, "\u8be5": 4036, "\u8be6": 4037, "\u8bed": 4038, "\u8bef": 4039, "\u8bf4": 4040, "\u8bf7": 4041, "\u8bf8": 4042, "\u8bfb": 4043, "\u8bfe": 4044, "\u8c01": 4045, "\u8c03": 4046, "\u8c08": 4047, "\u8c10": 4048, "\u8c18": 4049, "\u8c1a": 4050, "\u8c22": 4051, "\u8c23": 4052, "\u8c26": 4053, "\u8c28": 4054, "\u8c2d": 4055, "\u8c2f": 4056, "\u8c31": 4057, "\u8c37": 4058, "\u8c46": 4059, "\u8c61": 4060, "\u8c6a": 4061, "\u8ca0": 4062, "\u8ca1": 4063, "\u8caa": 4064, "\u8cb7": 4065, "\u8cbb": 4066, "\u8cbc": 4067, "\u8cc7": 4068, "\u8ce3": 4069, "\u8cea": 4070, "\u8d1d": 4071, "\u8d1e": 4072, "\u8d1f": 4073, "\u8d21": 4074, "\u8d22": 4075, "\u8d23": 4076, "\u8d25": 4077, "\u8d26": 4078, "\u8d27": 4079, "\u8d28": 4080, "\u8d2d": 4081, "\u8d2e": 4082, "\u8d32": 4083, "\u8d34": 4084, "\u8d35": 4085, "\u8d37": 4086, "\u8d38": 4087, "\u8d39": 4088, "\u8d3a": 4089, "\u8d3e": 4090, "\u8d44": 4091, "\u8d4b": 4092, "\u8d4f": 4093, "\u8d56": 4094, "\u8d5a": 4095, "\u8d5e": 4096, "\u8d63": 4097, "\u8d64": 4098, "\u8d6b": 4099, "\u8d70": 4100, "\u8d75": 4101, "\u8d77": 4102, "\u8d85": 4103, "\u8d8a": 4104, "\u8d8b": 4105, "\u8da3": 4106, "\u8db3": 4107, "\u8dc3": 4108, "\u8dcc": 4109, "\u8dd1": 4110, "\u8ddd": 4111, "\u8ddf": 4112, "\u8de1": 4113, "\u8de8": 4114, "\u8def": 4115, "\u8df3": 4116, "\u8e0f": 4117, "\u8e29": 4118, "\u8e2a": 4119, "\u8e64": 4120, "\u8eab": 4121, "\u8eca": 4122, "\u8ecd": 4123, "\u8edf": 4124, "\u8ee2": 4125, "\u8ef8": 4126, "\u8efd": 4127, "\u8f03": 4128, "\u8f09": 4129, "\u8f38": 4130, "\u8f49": 4131, "\u8f66": 4132, "\u8f68": 4133, "\u8f69": 4134, "\u8f6c": 4135, "\u8f6d": 4136, "\u8f6e": 4137, "\u8f6f": 4138, "\u8f74": 4139, "\u8f7b": 4140, "\u8f7d": 4141, "\u8f83": 4142, "\u8f85": 4143, "\u8f89": 4144, "\u8f91": 4145, "\u8f93": 4146, "\u8f95": 4147, "\u8f9b": 4148, "\u8f9e": 4149, "\u8fa3": 4150, "\u8fa8": 4151, "\u8fb0": 4152, "\u8fb9": 4153, "\u8fba": 4154, "\u8fbc": 4155, "\u8fbd": 4156, "\u8fbe": 4157, "\u8fbf": 4158, "\u8fc1": 4159, "\u8fc2": 4160, "\u8fc5": 4161, "\u8fc7": 4162, "\u8fce": 4163, "\u8fd0": 4164, "\u8fd1": 4165, "\u8fd4": 4166, "\u8fd8": 4167, "\u8fd9": 4168, "\u8fdb": 4169, "\u8fdc": 4170, "\u8fde": 4171, "\u8fdf": 4172, "\u8fea": 4173, "\u8fed": 4174, "\u8ff0": 4175, "\u8ff4": 4176, "\u8ff7": 4177, "\u8ff9": 4178, "\u8ffd": 4179, "\u9000": 4180, "\u9001": 4181, "\u9002": 4182, "\u9004": 4183, "\u9006": 4184, "\u9009": 4185, "\u900d": 4186, "\u900f": 4187, "\u9010": 4188, "\u9012": 4189, "\u9014": 4190, "\u9017": 4191, "\u9019": 4192, "\u901a": 4193, "\u901f": 4194, "\u9020": 4195, "\u9023": 4196, "\u902f": 4197, "\u9031": 4198, "\u9032": 4199, "\u903b": 4200, "\u903c": 4201, "\u903e": 4202, "\u9042": 4203, "\u9045": 4204, "\u9047": 4205, "\u904d": 4206, "\u904e": 4207, "\u9053": 4208, "\u9055": 4209, "\u905e": 4210, "\u9060": 4211, "\u9065": 4212, "\u9069": 4213, "\u906d": 4214, "\u9075": 4215, "\u9078": 4216, "\u907f": 4217, "\u9080": 4218, "\u9084": 4219, "\u9091": 4220, "\u9093": 4221, "\u90a2": 4222, "\u90a3": 4223, "\u90a6": 4224, "\u90ac": 4225, "\u90ae": 4226, "\u90af": 4227, "\u90b1": 4228, "\u90b4": 4229, "\u90b5": 4230, "\u90b9": 4231, "\u90bb": 4232, "\u90c1": 4233, "\u90ce": 4234, "\u90cf": 4235, "\u90d1": 4236, "\u90d3": 4237, "\u90d7": 4238, "\u90dc": 4239, "\u90dd": 4240, "\u90e6": 4241, "\u90e7": 4242, "\u90e8": 4243, "\u90ed": 4244, "\u90ef": 4245, "\u90f4": 4246, "\u90f5": 4247, "\u90f8": 4248, "\u90fd": 4249, "\u9102": 4250, "\u9122": 4251, "\u9131": 4252, "\u9146": 4253, "\u914d": 4254, "\u9152": 4255, "\u9171": 4256, "\u9187": 4257, "\u9192": 4258, "\u91c7": 4259, "\u91c8": 4260, "\u91ca": 4261, "\u91cc": 4262, "\u91cd": 4263, "\u91ce": 4264, "\u91cf": 4265, "\u91d0": 4266, "\u91d1": 4267, "\u91dd": 4268, "\u920d": 4269, "\u9271": 4270, "\u9274": 4271, "\u9280": 4272, "\u9310": 4273, "\u9332": 4274, "\u93e1": 4275, "\u946b": 4276, "\u9488": 4277, "\u9489": 4278, "\u949c": 4279, "\u949f": 4280, "\u94a2": 4281, "\u94a5": 4282, "\u94a6": 4283, "\u94a7": 4284, "\u94ad": 4285, "\u94ae": 4286, "\u94b1": 4287, "\u94bb": 4288, "\u94c1": 4289, "\u94dc": 4290, "\u94f6": 4291, "\u94fa": 4292, "\u94fe": 4293, "\u9500": 4294, "\u9501": 4295, "\u9508": 4296, "\u9519": 4297, "\u9521": 4298, "\u9526": 4299, "\u952e": 4300, "\u952f": 4301, "\u9547": 4302, "\u955c": 4303, "\u9577": 4304, "\u957f": 4305, "\u958b": 4306, "\u9593": 4307, "\u95a2": 4308, "\u95c7": 4309, "\u95e8": 4310, "\u95ed": 4311, "\u95ee": 4312, "\u95f4": 4313, "\u95f5": 4314, "\u95fb": 4315, "\u95fd": 4316, "\u95fe": 4317, "\u9605": 4318, "\u9608": 4319, "\u960e": 4320, "\u9619": 4321, "\u961a": 4322, "\u961c": 4323, "\u961f": 4324, "\u962e": 4325, "\u9631": 4326, "\u9632": 4327, "\u9633": 4328, "\u9634": 4329, "\u9635": 4330, "\u9636": 4331, "\u963b": 4332, "\u963f": 4333, "\u9644": 4334, "\u9645": 4335, "\u9646": 4336, "\u9647": 4337, "\u9648": 4338, "\u964b": 4339, "\u964d": 4340, "\u9650": 4341, "\u9662": 4342, "\u9664": 4343, "\u9669": 4344, "\u9670": 4345, "\u9675": 4346, "\u9676": 4347, "\u9677": 4348, "\u9678": 4349, "\u967a": 4350, "\u967d": 4351, "\u9685": 4352, "\u9686": 4353, "\u968e": 4354, "\u968f": 4355, "\u9690": 4356, "\u9694": 4357, "\u9697": 4358, "\u969b": 4359, "\u96a3": 4360, "\u96aa": 4361, "\u96b6": 4362, "\u96be": 4363, "\u96c1": 4364, "\u96c4": 4365, "\u96c5": 4366, "\u96c6": 4367, "\u96cd": 4368, "\u96d2": 4369, "\u96d5": 4370, "\u96e2": 4371, "\u96e3": 4372, "\u96e8": 4373, "\u96ea": 4374, "\u96f6": 4375, "\u96f7": 4376, "\u96fb": 4377, "\u96fe": 4378, "\u9700": 4379, "\u9704": 4380, "\u9707": 4381, "\u970a": 4382, "\u970d": 4383, "\u971e": 4384, "\u972d": 4385, "\u9732": 4386, "\u9738": 4387, "\u9752": 4388, "\u9756": 4389, "\u9759": 4390, "\u975e": 4391, "\u9760": 4392, "\u9762": 4393, "\u9773": 4394, "\u978d": 4395, "\u97a0": 4396, "\u97e6": 4397, "\u97e9": 4398, "\u97f3": 4399, "\u97f5": 4400, "\u97f6": 4401, "\u97ff": 4402, "\u9801": 4403, "\u9802": 4404, "\u9803": 4405, "\u9805": 4406, "\u9806": 4407, "\u9808": 4408, "\u9810": 4409, "\u9811": 4410, "\u9818": 4411, "\u982d": 4412, "\u984c": 4413, "\u984d": 4414, "\u9858": 4415, "\u985e": 4416, "\u986f": 4417, "\u9875": 4418, "\u9876": 4419, "\u9879": 4420, "\u987a": 4421, "\u987b": 4422, "\u987e": 4423, "\u9884": 4424, "\u9886": 4425, "\u9891": 4426, "\u9896": 4427, "\u9898": 4428, "\u989b": 4429, "\u989c": 4430, "\u989d": 4431, "\u98a8": 4432, "\u98ce": 4433, "\u98d8": 4434, "\u98db": 4435, "\u98de": 4436, "\u98df": 4437, "\u98ef": 4438, "\u9910": 4439, "\u9918": 4440, "\u994b": 4441, "\u996d": 4442, "\u996e": 4443, "\u9970": 4444, "\u9976": 4445, "\u9986": 4446, "\u9988": 4447, "\u9996": 4448, "\u9999": 4449, "\u99a5": 4450, "\u99a8": 4451, "\u99ac": 4452, "\u9a13": 4453, "\u9a6c": 4454, "\u9a71": 4455, "\u9a77": 4456, "\u9a7b": 4457, "\u9a7c": 4458, "\u9a82": 4459, "\u9a86": 4460, "\u9a8c": 4461, "\u9aa4": 4462, "\u9ad4": 4463, "\u9ad8": 4464, "\u9b3c": 4465, "\u9b4f": 4466, "\u9b54": 4467, "\u9b6f": 4468, "\u9c7c": 4469, "\u9c81": 4470, "\u9c8d": 4471, "\u9c9c": 4472, "\u9cb8": 4473, "\u9cf4": 4474, "\u9d8f": 4475, "\u9e21": 4476, "\u9e23": 4477, "\u9e2d": 4478, "\u9e4a": 4479, "\u9e4f": 4480, "\u9e64": 4481, "\u9e70": 4482, "\u9ea6": 4483, "\u9ebb": 4484, "\u9ebc": 4485, "\u9ec3": 4486, "\u9ec4": 4487, "\u9ece": 4488, "\u9ed1": 4489, "\u9ed2": 4490, "\u9ed4": 4491, "\u9ed8": 4492, "\u9edb": 4493, "\u9ede": 4494, "\u9f0e": 4495, "\u9f20": 4496, "\u9f50": 4497, "\u9f7f": 4498, "\u9f84": 4499, "\u9f99": 4500, "\u9f9a": 4501, "\ua723": 4502, "\ua725": 4503, "\ua781": 4504, "\uac00": 4505, "\uac01": 4506, "\uac04": 4507, "\uac08": 4508, "\uac10": 4509, "\uac11": 4510, "\uac12": 4511, "\uac14": 4512, "\uac15": 4513, "\uac19": 4514, "\uac1c": 4515, "\uac1d": 4516, "\uac70": 4517, "\uac74": 4518, "\uac78": 4519, "\uac80": 4520, "\uac83": 4521, "\uac8c": 4522, "\uaca0": 4523, "\uaca9": 4524, "\uacac": 4525, "\uacb0": 4526, "\uacbd": 4527, "\uacc4": 4528, "\uace0": 4529, "\uacf1": 4530, "\uacf5": 4531, "\uacfc": 4532, "\uad00": 4533, "\uad11": 4534, "\uad50": 4535, "\uad6c": 4536, "\uad6d": 4537, "\uad8c": 4538, "\uadc0": 4539, "\uade0": 4540, "\uadf8": 4541, "\uadfc": 4542, "\uae00": 4543, "\uae08": 4544, "\uae09": 4545, "\uae30": 4546, "\uae34": 4547, "\uae38": 4548, "\uae40": 4549, "\uae4c": 4550, "\uaebc": 4551, "\uafb8": 4552, "\uafc8": 4553, "\ub00c": 4554, "\ub04a": 4555, "\ub04c": 4556, "\ub05d": 4557, "\ub07c": 4558, "\ub080": 4559, "\ub098": 4560, "\ub09c": 4561, "\ub0a0": 4562, "\ub0a8": 4563, "\ub0ac": 4564, "\ub0ae": 4565, "\ub0b4": 4566, "\ub0b8": 4567, "\ub0bc": 4568, "\ub0e5": 4569, "\ub108": 4570, "\ub110": 4571, "\ub123": 4572, "\ub124": 4573, "\ub125": 4574, "\ub144": 4575, "\ub155": 4576, "\ub178": 4577, "\ub192": 4578, "\ub204": 4579, "\ub208": 4580, "\ub274": 4581, "\ub290": 4582, "\ub294": 4583, "\ub298": 4584, "\ub2a5": 4585, "\ub2c8": 4586, "\ub2cc": 4587, "\ub2e4": 4588, "\ub2e8": 4589, "\ub2ec": 4590, "\ub2f4": 4591, "\ub2f5": 4592, "\ub2f9": 4593, "\ub2ff": 4594, "\ub300": 4595, "\ub354": 4596, "\ub364": 4597, "\ub370": 4598, "\ub371": 4599, "\ub378": 4600, "\ub381": 4601, "\ub3c4": 4602, "\ub3c5": 4603, "\ub3cc": 4604, "\ub3d9": 4605, "\ub418": 4606, "\ub41c": 4607, "\ub420": 4608, "\ub428": 4609, "\ub429": 4610, "\ub450": 4611, "\ub4a4": 4612, "\ub4c8": 4613, "\ub4dc": 4614, "\ub4dd": 4615, "\ub4e0": 4616, "\ub4e4": 4617, "\ub4ed": 4618, "\ub4f1": 4619, "\ub514": 4620, "\ub515": 4621, "\ub529": 4622, "\ub530": 4623, "\ub54c": 4624, "\ub5a4": 4625, "\ub5a8": 4626, "\ub5bb": 4627, "\ub610": 4628, "\ub77c": 4629, "\ub77d": 4630, "\ub78c": 4631, "\ub798": 4632, "\ub79c": 4633, "\ub7a8": 4634, "\ub7c9": 4635, "\ub7ec": 4636, "\ub7fc": 4637, "\ub7ff": 4638, "\ub808": 4639, "\ub80c": 4640, "\ub824": 4641, "\ub825": 4642, "\ub828": 4643, "\ub82c": 4644, "\ub838": 4645, "\ub85c": 4646, "\ub85d": 4647, "\ub860": 4648, "\ub864": 4649, "\ub871": 4650, "\ub8cc": 4651, "\ub8e8": 4652, "\ub8f9": 4653, "\ub958": 4654, "\ub960": 4655, "\ub974": 4656, "\ub978": 4657, "\ub97c": 4658, "\ub984": 4659, "\ub9ac": 4660, "\ub9b0": 4661, "\ub9b4": 4662, "\ub9bc": 4663, "\ub9bd": 4664, "\ub9bf": 4665, "\ub9c1": 4666, "\ub9c8": 4667, "\ub9c9": 4668, "\ub9cc": 4669, "\ub9ce": 4670, "\ub9d0": 4671, "\ub9db": 4672, "\ub9dd": 4673, "\ub9e4": 4674, "\ub9f5": 4675, "\ub9f7": 4676, "\uba3c": 4677, "\uba40": 4678, "\uba48": 4679, "\uba54": 4680, "\uba70": 4681, "\uba74": 4682, "\uba85": 4683, "\uba87": 4684, "\ubaa8": 4685, "\ubaa9": 4686, "\ubabb": 4687, "\ubb34": 4688, "\ubb38": 4689, "\ubb3c": 4690, "\ubba4": 4691, "\ubbc0": 4692, "\ubbf8": 4693, "\ubc00": 4694, "\ubc0d": 4695, "\ubc0f": 4696, "\ubc14": 4697, "\ubc15": 4698, "\ubc18": 4699, "\ubc1b": 4700, "\ubc1c": 4701, "\ubc1d": 4702, "\ubc24": 4703, "\ubc29": 4704, "\ubc30": 4705, "\ubc31": 4706, "\ubc84": 4707, "\ubc88": 4708, "\ubc95": 4709, "\ubca8": 4710, "\ubcc0": 4711, "\ubcc4": 4712, "\ubcf4": 4713, "\ubcf5": 4714, "\ubcf8": 4715, "\ubd80": 4716, "\ubd81": 4717, "\ubd84": 4718, "\ubd88": 4719, "\ube0c": 4720, "\ube14": 4721, "\ube44": 4722, "\ube4c": 4723, "\ube59": 4724, "\ube5b": 4725, "\ube61": 4726, "\ube75": 4727, "\ube7c": 4728, "\ubf51": 4729, "\uc05c": 4730, "\uc0ac": 4731, "\uc0ad": 4732, "\uc0b0": 4733, "\uc0b4": 4734, "\uc0b6": 4735, "\uc0c0": 4736, "\uc0c1": 4737, "\uc0c9": 4738, "\uc0dd": 4739, "\uc11c": 4740, "\uc11d": 4741, "\uc120": 4742, "\uc124": 4743, "\uc131": 4744, "\uc138": 4745, "\uc139": 4746, "\uc13c": 4747, "\uc14b": 4748, "\uc154": 4749, "\uc158": 4750, "\uc18c": 4751, "\uc18d": 4752, "\uc194": 4753, "\uc1a1": 4754, "\uc1c4": 4755, "\uc1fc": 4756, "\uc218": 4757, "\uc219": 4758, "\uc21c": 4759, "\uc22b": 4760, "\uc27d": 4761, "\uc2a4": 4762, "\uc2a8": 4763, "\uc2b5": 4764, "\uc2b9": 4765, "\uc2dc": 4766, "\uc2dd": 4767, "\uc2e0": 4768, "\uc2e4": 4769, "\uc2f6": 4770, "\uc500": 4771, "\uc528": 4772, "\uc529": 4773, "\uc544": 4774, "\uc545": 4775, "\uc548": 4776, "\uc54a": 4777, "\uc54c": 4778, "\uc555": 4779, "\uc558": 4780, "\uc55e": 4781, "\uc560": 4782, "\uc57c": 4783, "\uc57d": 4784, "\uc591": 4785, "\uc5b4": 4786, "\uc5b5": 4787, "\uc5b8": 4788, "\uc5bb": 4789, "\uc5c5": 4790, "\uc5c6": 4791, "\uc5c7": 4792, "\uc5c8": 4793, "\uc5d0": 4794, "\uc5d4": 4795, "\uc5e3": 4796, "\uc5ec": 4797, "\uc5ed": 4798, "\uc5f0": 4799, "\uc5f4": 4800, "\uc601": 4801, "\uc608": 4802, "\uc624": 4803, "\uc628": 4804, "\uc62c": 4805, "\uc635": 4806, "\uc640": 4807, "\uc644": 4808, "\uc678": 4809, "\uc694": 4810, "\uc6a9": 4811, "\uc6b0": 4812, "\uc6b1": 4813, "\uc6b4": 4814, "\uc6b8": 4815, "\uc6c0": 4816, "\uc6cc": 4817, "\uc6d0": 4818, "\uc6e8": 4819, "\uc704": 4820, "\uc720": 4821, "\uc721": 4822, "\uc728": 4823, "\uc73c": 4824, "\uc740": 4825, "\uc744": 4826, "\uc74c": 4827, "\uc751": 4828, "\uc758": 4829, "\uc774": 4830, "\uc775": 4831, "\uc778": 4832, "\uc77c": 4833, "\uc77d": 4834, "\uc784": 4835, "\uc785": 4836, "\uc788": 4837, "\uc790": 4838, "\uc791": 4839, "\uc794": 4840, "\uc798": 4841, "\uc7a1": 4842, "\uc7a5": 4843, "\uc7ac": 4844, "\uc800": 4845, "\uc801": 4846, "\uc804": 4847, "\uc808": 4848, "\uc810": 4849, "\uc811": 4850, "\uc815": 4851, "\uc81c": 4852, "\uc820": 4853, "\uc838": 4854, "\uc84c": 4855, "\uc870": 4856, "\uc871": 4857, "\uc874": 4858, "\uc885": 4859, "\uc88b": 4860, "\uc88c": 4861, "\uc8fc": 4862, "\uc900": 4863, "\uc904": 4864, "\uc911": 4865, "\uc988": 4866, "\uc989": 4867, "\uc99d": 4868, "\uc9c0": 4869, "\uc9c1": 4870, "\uc9c4": 4871, "\uc9c8": 4872, "\uc9d0": 4873, "\uc9d1": 4874, "\uc9dc": 4875, "\uc9dd": 4876, "\uc9f8": 4877, "\ucc28": 4878, "\ucc29": 4879, "\ucc3e": 4880, "\ucc44": 4881, "\ucc98": 4882, "\ucc9c": 4883, "\ucca8": 4884, "\ucca9": 4885, "\uccad": 4886, "\uccb4": 4887, "\uccd0": 4888, "\ucd08": 4889, "\ucd1d": 4890, "\ucd5c": 4891, "\ucd94": 4892, "\ucd95": 4893, "\ucd9c": 4894, "\ucda4": 4895, "\ucda9": 4896, "\ucde8": 4897, "\uce20": 4898, "\uce21": 4899, "\uce58": 4900, "\uce5c": 4901, "\uce68": 4902, "\uce74": 4903, "\uce94": 4904, "\uce98": 4905, "\ucea0": 4906, "\ucee4": 4907, "\ucee8": 4908, "\uceec": 4909, "\ucef4": 4910, "\ucef7": 4911, "\ucf1c": 4912, "\ucf54": 4913, "\ucf64": 4914, "\ud06c": 4915, "\ud070": 4916, "\ud074": 4917, "\ud0a4": 4918, "\ud0b4": 4919, "\ud0b9": 4920, "\ud0c0": 4921, "\ud0c1": 4922, "\ud0c8": 4923, "\ud0d0": 4924, "\ud0dc": 4925, "\ud0dd": 4926, "\ud130": 4927, "\ud134": 4928, "\ud14c": 4929, "\ud150": 4930, "\ud15c": 4931, "\ud1a0": 4932, "\ud1a1": 4933, "\ud1b5": 4934, "\ud22c": 4935, "\ud29c": 4936, "\ud2b8": 4937, "\ud2b9": 4938, "\ud2bc": 4939, "\ud2f0": 4940, "\ud2f1": 4941, "\ud305": 4942, "\ud30c": 4943, "\ud310": 4944, "\ud314": 4945, "\ud31d": 4946, "\ud328": 4947, "\ud329": 4948, "\ud398": 4949, "\ud3ab": 4950, "\ud3b4": 4951, "\ud3b8": 4952, "\ud3c9": 4953, "\ud3ec": 4954, "\ud3ed": 4955, "\ud3f4": 4956, "\ud45c": 4957, "\ud478": 4958, "\ud480": 4959, "\ud504": 4960, "\ud508": 4961, "\ud50c": 4962, "\ud53c": 4963, "\ud53d": 4964, "\ud544": 4965, "\ud551": 4966, "\ud558": 4967, "\ud559": 4968, "\ud55c": 4969, "\ud560": 4970, "\ud568": 4971, "\ud569": 4972, "\ud56d": 4973, "\ud574": 4974, "\ud578": 4975, "\ud588": 4976, "\ud589": 4977, "\ud5a5": 4978, "\ud5d8": 4979, "\ud5e4": 4980, "\ud604": 4981, "\ud615": 4982, "\ud638": 4983, "\ud639": 4984, "\ud654": 4985, "\ud655": 4986, "\ud658": 4987, "\ud65c": 4988, "\ud669": 4989, "\ud68c": 4990, "\ud6a8": 4991, "\ud6c4": 4992, "\ud6c8": 4993, "\ud750": 4994, "\ud788": 4995, "\ud78c": 4996, "\ud7a3": 4997, "\ue2c1": 4998, "\ue3ea": 4999, "\ue430": 5000, "\ue8de": 5001, "\uec50": 5002, "\uf00c": 5003, "\uf043": 5004, "\uf0c2": 5005, "\uf0e7": 5006, "\uf186": 5007, "\uf2c7": 5008, "\uf2c8": 5009, "\uf2c9": 5010, "\uf2ca": 5011, "\uf2cb": 5012, "\uf2dc": 5013, "\uf2dd": 5014, "\ufe0e": 5015, "\ufe0f": 5016, "\ufe35": 5017, "\ufe48": 5018, "\ufe4f": 5019, "\ufe63": 5020, "\ufeff": 5021, "\uff01": 5022, "\uff02": 5023, "\uff03": 5024, "\uff04": 5025, "\uff05": 5026, "\uff06": 5027, "\uff07": 5028, "\uff08": 5029, "\uff09": 5030, "\uff0a": 5031, "\uff0b": 5032, "\uff0c": 5033, "\uff0d": 5034, "\uff0e": 5035, "\uff0f": 5036, "\uff10": 5037, "\uff11": 5038, "\uff12": 5039, "\uff13": 5040, "\uff14": 5041, "\uff15": 5042, "\uff16": 5043, "\uff17": 5044, "\uff18": 5045, "\uff19": 5046, "\uff1a": 5047, "\uff1b": 5048, "\uff1c": 5049, "\uff1d": 5050, "\uff1e": 5051, "\uff1f": 5052, "\uff20": 5053, "\uff21": 5054, "\uff22": 5055, "\uff23": 5056, "\uff24": 5057, "\uff27": 5058, "\uff28": 5059, "\uff2b": 5060, "\uff2d": 5061, "\uff2f": 5062, "\uff30": 5063, "\uff35": 5064, "\uff3b": 5065, "\uff3c": 5066, "\uff3d": 5067, "\uff3e": 5068, "\uff3f": 5069, "\uff40": 5070, "\uff4b": 5071, "\uff50": 5072, "\uff59": 5073, "\uff5b": 5074, "\uff5c": 5075, "\uff5d": 5076, "\uff5e": 5077, "\uff5f": 5078, "\uff60": 5079, "\uff61": 5080, "\uff62": 5081, "\uff63": 5082, "\uff64": 5083, "\uff65": 5084, "\uff68": 5085, "\uff70": 5086, "\uff73": 5087, "\uff76": 5088, "\uff77": 5089, "\uff78": 5090, "\uff79": 5091, "\uff7a": 5092, "\uff7b": 5093, "\uff7c": 5094, "\uff7d": 5095, "\uff7e": 5096, "\uff7f": 5097, "\uff80": 5098, "\uff81": 5099, "\uff82": 5100, "\uff83": 5101, "\uff84": 5102, "\uff85": 5103, "\uff89": 5104, "\uff8a": 5105, "\uff8b": 5106, "\uff8c": 5107, "\uff8d": 5108, "\uff8e": 5109, "\uff9a": 5110, "\uff9b": 5111, "\uff9e": 5112, "\uff9f": 5113, "\uffe3": 5114, "\uffe5": 5115, "\ufffc": 5116, "\ufffd": 5117, "\ud834\udd61": 5118, "\ud835\udc00": 5119, "\ud835\udc01": 5120, "\ud835\udc1a": 5121, "\ud835\udc26": 5122, "\ud835\udc31": 5123, "\ud835\udc32": 5124, "\ud835\udc4e": 5125, "\ud835\udc4f": 5126, "\ud835\udc50": 5127, "\ud835\udc51": 5128, "\ud835\udc52": 5129, "\ud835\udc53": 5130, "\ud835\udc5b": 5131, "\ud835\udc65": 5132, "\ud835\udc66": 5133, "\ud835\udc67": 5134, "\ud835\udce4": 5135, "\ud835\udcf7": 5136, "\ud835\udd02": 5137, "\ud835\udd2b": 5138, "\ud835\udd4a": 5139, "\ud835\udd50": 5140, "\ud835\udd65": 5141, "\ud835\udd73": 5142, "\ud835\udd82": 5143, "\ud835\udd89": 5144, "\ud835\udd8a": 5145, "\ud835\udd91": 5146, "\ud835\udd94": 5147, "\ud835\udd97": 5148, "\ud835\ude70": 5149, "\ud835\ude72": 5150, "\ud835\ude73": 5151, "\ud835\ude74": 5152, "\ud835\ude75": 5153, "\ud835\ude76": 5154, "\ud835\ude77": 5155, "\ud835\ude78": 5156, "\ud835\ude7b": 5157, "\ud835\ude7c": 5158, "\ud835\ude7d": 5159, "\ud835\ude7e": 5160, "\ud835\ude7f": 5161, "\ud835\ude81": 5162, "\ud835\ude82": 5163, "\ud835\ude83": 5164, "\ud835\ude84": 5165, "\ud835\ude85": 5166, "\ud835\ude86": 5167, "\ud835\ude88": 5168, "\ud835\udea9": 5169, "\ud835\udec3": 5170, "\ud835\udeff": 5171, "\ud835\udf06": 5172, "\ud835\udf0b": 5173, "\ud835\udf37": 5174, "\ud835\udfd9": 5175, "\ud83c\udde6": 5176, "\ud83c\udde8": 5177, "\ud83c\uddea": 5178, "\ud83c\uddeb": 5179, "\ud83c\uddee": 5180, "\ud83c\uddf2": 5181, "\ud83c\uddf3": 5182, "\ud83c\uddf7": 5183, "\ud83c\uddf8": 5184, "\ud83c\uddf9": 5185, "\ud83c\uddfa": 5186, "\ud83c\uddfd": 5187, "\ud83c\udf0d": 5188, "\ud83c\udf0e": 5189, "\ud83c\udf0f": 5190, "\ud83c\udf10": 5191, "\ud83c\udf1f": 5192, "\ud83c\udf31": 5193, "\ud83c\udf38": 5194, "\ud83c\udf39": 5195, "\ud83c\udf4e": 5196, "\ud83c\udf7b": 5197, "\ud83c\udf89": 5198, "\ud83c\udf8a": 5199, "\ud83c\udfb5": 5200, "\ud83c\udfc0": 5201, "\ud83c\udfd3": 5202, "\ud83c\udffb": 5203, "\ud83c\udffc": 5204, "\ud83c\udffe": 5205, "\ud83d\udc19": 5206, "\ud83d\udc1b": 5207, "\ud83d\udc1f": 5208, "\ud83d\udc23": 5209, "\ud83d\udc31": 5210, "\ud83d\udc36": 5211, "\ud83d\udc48": 5212, "\ud83d\udc49": 5213, "\ud83d\udc4b": 5214, "\ud83d\udc4c": 5215, "\ud83d\udc4d": 5216, "\ud83d\udc4e": 5217, "\ud83d\udc4f": 5218, "\ud83d\udc51": 5219, "\ud83d\udc63": 5220, "\ud83d\udc64": 5221, "\ud83d\udc68": 5222, "\ud83d\udc6f": 5223, "\ud83d\udc7a": 5224, "\ud83d\udc80": 5225, "\ud83d\udca9": 5226, "\ud83d\udcac": 5227, "\ud83d\udcca": 5228, "\ud83d\udccc": 5229, "\ud83d\udcd6": 5230, "\ud83d\udcdc": 5231, "\ud83d\udd00": 5232, "\ud83d\udd01": 5233, "\ud83d\udd08": 5234, "\ud83d\udd17": 5235, "\ud83d\udd25": 5236, "\ud83d\udd2d": 5237, "\ud83d\udd2e": 5238, "\ud83d\udd34": 5239, "\ud83d\udd3c": 5240, "\ud83d\udd3d": 5241, "\ud83d\ude00": 5242, "\ud83d\ude01": 5243, "\ud83d\ude02": 5244, "\ud83d\ude03": 5245, "\ud83d\ude04": 5246, "\ud83d\ude05": 5247, "\ud83d\ude0a": 5248, "\ud83d\ude0d": 5249, "\ud83d\ude0e": 5250, "\ud83d\ude13": 5251, "\ud83d\ude18": 5252, "\ud83d\ude1b": 5253, "\ud83d\ude1e": 5254, "\ud83d\ude1f": 5255, "\ud83d\ude20": 5256, "\ud83d\ude21": 5257, "\ud83d\ude22": 5258, "\ud83d\ude25": 5259, "\ud83d\ude26": 5260, "\ud83d\ude27": 5261, "\ud83d\ude28": 5262, "\ud83d\ude2d": 5263, "\ud83d\ude30": 5264, "\ud83d\ude31": 5265, "\ud83d\ude37": 5266, "\ud83d\ude39": 5267, "\ud83d\ude3f": 5268, "\ud83d\ude41": 5269, "\ud83d\ude42": 5270, "\ud83d\ude43": 5271, "\ud83d\ude4a": 5272, "\ud83d\ude80": 5273, "\ud83d\uded1": 5274, "\ud83d\udee0": 5275, "\ud83d\udee1": 5276, "\ud83e\udd10": 5277, "\ud83e\udd14": 5278, "\ud83e\udd16": 5279, "\ud83e\udd17": 5280, "\ud83e\udd26": 5281, "\ud83e\udd29": 5282, "\ud83e\udd42": 5283, "\ud83e\udd73": 5284, "\ud83e\udd80": 5285, "\ud841\udf0e": 5286, "\ud842\udfb7": 5287, "\udbc0\udd87": 5288, "\udbc3\ude02": 5289, "\udbff\udfff": 5290, "  ": 5291, "    ": 5292, "        ": 5293, "in": 5294, "on": 5295, "\n        ": 5296, "th": 5297, "es": 5298, "at": 5299, "se": 5300, "re": 5301, "er": 5302, "st": 5303, "or": 5304, "an": 5305, "en": 5306, "the": 5307, "ti": 5308, "le": 5309, "al": 5310, "\n    ": 5311, "ar": 5312, "de": 5313, "ri": 5314, "tion": 5315, "is": 5316, "ro": 5317, "co": 5318, "el": 5319, "te": 5320, "\n            ": 5321, "me": 5322, "ing": 5323, "\n\n": 5324, "ur": 5325, "ction": 5326, "as": 5327, "lf": 5328, "self": 5329, "str": 5330, "\n                ": 5331, "mp": 5332, "if": 5333, "to": 5334, "un": 5335, "ch": 5336, "lo": 5337, "ge": 5338, "for": 5339, "t_": 5340, "ap": 5341, "res": 5342, "that": 5343, "and": 5344, "um": 5345, "ce": 5346, "fi": 5347, "li": 5348, "of": 5349, "ent": 5350, "qu": 5351, "ut": 5352, "ate": 5353, "tur": 5354, "ion": 5355, "turn": 5356, "pon": 5357, "ul": 5358, "ct": 5359, "pro": 5360, "ponse": 5361, "ame": 5362, "di": 5363, "stru": 5364, "it": 5365, "no": 5366, "con": 5367, "return": 5368, "ad": 5369, "struction": 5370, "ra": 5371, "ex": 5372, "est": 5373, "id": 5374, "def": 5375, "mple": 5376, "pe": 5377, "ue": 5378, "val": 5379, "In": 5380, "int": 5381, "ow": 5382, "he": 5383, "ation": 5384, "ck": 5385, "pa": 5386, "ma": 5387, "requ": 5388, "name": 5389, "one": 5390, "ers": 5391, "ol": 5392, "rite": 5393, "ab": 5394, "des": 5395, "mo": 5396, "pri": 5397, "ty": 5398, "cri": 5399, "ve": 5400, "si": 5401, "num": 5402, "\n\n    ": 5403, "ata": 5404, "d_": 5405, "fun": 5406, "yth": 5407, "par": 5408, "ython": 5409, "ask": 5410, "request": 5411, "tes": 5412, "wi": 5413, "ke": 5414, "response": 5415, "up": 5416, "comple": 5417, "\n\n        ": 5418, "Write": 5419, "list": 5420, "function": 5421, "am": 5422, "op": 5423, "task": 5424, "not": 5425, "descri": 5426, "Res": 5427, "ment": 5428, "be": 5429, "None": 5430, "data": 5431, "all": 5432, "ely": 5433, "appro": 5434, "ne": 5435, "ser": 5436, "Response": 5437, "appropri": 5438, "bes": 5439, "put": 5440, "elow": 5441, "ately": 5442, "instruction": 5443, "appropriately": 5444, "Instruction": 5445, "completes": 5446, "describes": 5447, "Python": 5448, "Below": 5449, "po": 5450, "\n                        ": 5451, "ver": 5452, "ta": 5453, "la": 5454, "ter": 5455, "ed": 5456, "len": 5457, "sh": 5458, "arg": 5459, "ord": 5460, "tr": 5461, "ts": 5462, "end": 5463, "ou": 5464, "mat": 5465, "string": 5466, "do": 5467, "with": 5468, "cl": 5469, "rom": 5470, "low": 5471, "ess": 5472, "\n                    ": 5473, "type": 5474, "00": 5475, "from": 5476, "ort": 5477, "il": 5478, "numb": 5479, "ass": 5480, "key": 5481, "The": 5482, "ren": 5483, "value": 5484, "ror": 5485, "su": 5486, "file": 5487, "path": 5488, "code": 5489, "ob": 5490, "set": 5491, "out": 5492, "wh": 5493, "pr": 5494, "app": 5495, "us": 5496, "ult": 5497, "get": 5498, "vi": 5499, "ase": 5500, "time": 5501, "bo": 5502, "able": 5503, "age": 5504, "lin": 5505, "gh": 5506, "are": 5507, "ted": 5508, "Re": 5509, "we": 5510, "cur": 5511, "args": 5512, "per": 5513, "else": 5514, "je": 5515, "ze": 5516, "__": 5517, "   ": 5518, "y_": 5519, "print": 5520, "col": 5521, "you": 5522, "Tr": 5523, "ic": 5524, "get_": 5525, "bu": 5526, "fo": 5527, "fol": 5528, "ly": 5529, "log": 5530, "ray": 5531, "che": 5532, "so": 5533, "uld": 5534, "et": 5535, "param": 5536, "True": 5537, "number": 5538, "ven": 5539, "ance": 5540, "by": 5541, "use": 5542, "ould": 5543, "pla": 5544, "s_": 5545, "imp": 5546, "ac": 5547, "follow": 5548, "ject": 5549, "com": 5550, "coun": 5551, "array": 5552, "gi": 5553, "alse": 5554, "Er": 5555, "word": 5556, "Ex": 5557, "ele": 5558, "cre": 5559, "inst": 5560, "ange": 5561, "tex": 5562, "Error": 5563, "ms": 5564, "pre": 5565, "del": 5566, "dex": 5567, "cep": 5568, "date": 5569, "max": 5570, "pec": 5571, "od": 5572, "following": 5573, "format": 5574, "min": 5575, "False": 5576, "_s": 5577, "cal": 5578, "act": 5579, "can": 5580, "\t\t": 5581, "class": 5582, "this": 5583, "sub": 5584, "fe": 5585, "fig": 5586, "tra": 5587, "ind": 5588, "import": 5589, "result": 5590, "les": 5591, "                ": 5592, "_id": 5593, "ary": 5594, "index": 5595, "ist": 5596, "gen": 5597, "tri": 5598, "ll": 5599, "ach": 5600, "add": 5601, "ces": 5602, "im": 5603, "input": 5604, "new": 5605, "text": 5606, "ite": 5607, "star": 5608, "ise": 5609, "char": 5610, "user": 5611, "element": 5612, "om": 5613, "dict": 5614, "read": 5615, "line": 5616, "ger": 5617, "ave": 5618, "ack": 5619, "append": 5620, "10": 5621, "ip": 5622, "rent": 5623, "_name": 5624, "ure": 5625, "sum": 5626, "comp": 5627, "valu": 5628, "ther": 5629, "should": 5630, "np": 5631, "raise": 5632, "node": 5633, "ust": 5634, "range": 5635, "ample": 5636, "ori": 5637, "config": 5638, "If": 5639, "ument": 5640, "cess": 5641, "erate": 5642, "os": 5643, "ca": 5644, "model": 5645, "object": 5646, "size": 5647, "var": 5648, "red": 5649, "ans": 5650, "gth": 5651, "und": 5652, "meth": 5653, "instance": 5654, "eld": 5655, "count": 5656, "given": 5657, "ile": 5658, "ot": 5659, "check": 5660, "has": 5661, "tain": 5662, "ali": 5663, "ang": 5664, "sor": 5665, "\n  ": 5666, "igh": 5667, "ir": 5668, "pu": 5669, "values": 5670, "ten": 5671, "valid": 5672, "excep": 5673, "length": 5674, "pl": 5675, "Th": 5676, "kw": 5677, "ates": 5678, "\n      ": 5679, "sp": 5680, "error": 5681, "form": 5682, "er_": 5683, "spec": 5684, "du": 5685, "method": 5686, "Con": 5687, "each": 5688, "our": 5689, "sy": 5690, "url": 5691, "try": 5692, "py": 5693, "defa": 5694, "wor": 5695, "lic": 5696, "gro": 5697, "ep": 5698, "gra": 5699, "vers": 5700, "ity": 5701, "comm": 5702, "fa": 5703, "tions": 5704, "kwargs": 5705, "Can": 5706, "_c": 5707, "Return": 5708, "load": 5709, "cont": 5710, "mplement": 5711, "numbers": 5712, "contain": 5713, "ble": 5714, "row": 5715, "inter": 5716, "ag": 5717, "ress": 5718, "will": 5719, "create": 5720, "python": 5721, "any": 5722, "tar": 5723, "stat": 5724, "info": 5725, "sen": 5726, "write": 5727, "doc": 5728, "elif": 5729, "ext": 5730, "its": 5731, "au": 5732, "head": 5733, "is_": 5734, "dir": 5735, "base": 5736, "to_": 5737, "gn": 5738, "ci": 5739, "group": 5740, "does": 5741, "arr": 5742, "output": 5743, "\n\n\n": 5744, "mess": 5745, "start": 5746, "using": 5747, "hand": 5748, "ters": 5749, "ree": 5750, "ator": 5751, "point": 5752, "cor": 5753, "ini": 5754, "have": 5755, "rst": 5756, "ay": 5757, "enti": 5758, "This": 5759, "inte": 5760, "ax": 5761, "ho": 5762, "Out": 5763, "state": 5764, "Val": 5765, "charact": 5766, "lab": 5767, "what": 5768, "ded": 5769, "ames": 5770, "dif": 5771, "version": 5772, "here": 5773, "call": 5774, "ory": 5775, "01": 5776, "\r\n": 5777, "rect": 5778, "back": 5779, "al_": 5780, "He": 5781, "son": 5782, "cul": 5783, "Output": 5784, "ations": 5785, "c_": 5786, "first": 5787, "field": 5788, "\n\n            ": 5789, "run": 5790, "temp": 5791, "generate": 5792, "ht": 5793, "\n                                ": 5794, "except": 5795, "\n                            ": 5796, "lock": 5797, "vari": 5798, "move": 5799, "dis": 5800, "gram": 5801, "current": 5802, "Cre": 5803, "work": 5804, "ON": 5805, "No": 5806, "gin": 5807, "tim": 5808, "ally": 5809, "default": 5810, "label": 5811, "\r\n        ": 5812, "ken": 5813, "ape": 5814, "umn": 5815, "que": 5816, "message": 5817, "gr": 5818, "gs": 5819, "ER": 5820, "\n\t\t": 5821, "match": 5822, "ting": 5823, "order": 5824, "ild": 5825, "arch": 5826, "map": 5827, "update": 5828, "names": 5829, "specif": 5830, "fin": 5831, "ima": 5832, "jo": 5833, "sert": 5834, "pass": 5835, "ph": 5836, "quer": 5837, "pt": 5838, "_re": 5839, "IN": 5840, "ell": 5841, "bin": 5842, "test": 5843, "ct_": 5844, "pos": 5845, "item": 5846, "flo": 5847, "Co": 5848, "tional": 5849, "Create": 5850, "vice": 5851, "ard": 5852, "params": 5853, "obj": 5854, "only": 5855, "fil": 5856, "\n ": 5857, "json": 5858, "tw": 5859, "rand": 5860, "ati": 5861, "column": 5862, "amp": 5863, "trans": 5864, "pi": 5865, "atch": 5866, "lit": 5867, "av": 5868, "isinstance": 5869, "ute": 5870, "join": 5871, "ype": 5872, "cli": 5873, "plain": 5874, "where": 5875, "iter": 5876, "Here": 5877, "float": 5878, "implement": 5879, "put_": 5880, "Ad": 5881, "100": 5882, "_b": 5883, "dist": 5884, "posi": 5885, "Value": 5886, "diction": 5887, "parame": 5888, "sion": 5889, "table": 5890, "case": 5891, "ok": 5892, "tive": 5893, "\n                                        ": 5894, "attr": 5895, "clu": 5896, "righ": 5897, "returns": 5898, "ence": 5899, "other": 5900, "fix": 5901, "pres": 5902, "der": 5903, "ff": 5904, "df": 5905, "prime": 5906, "ated": 5907, "vel": 5908, "main": 5909, "words": 5910, "port": 5911, "_type": 5912, "ich": 5913, "token": 5914, "men": 5915, "_f": 5916, "ding": 5917, "mul": 5918, "De": 5919, "Input": 5920, "elements": 5921, "tp": 5922, "ong": 5923, "process": 5924, "parse": 5925, "lef": 5926, "place": 5927, "pace": 5928, "program": 5929, "sing": 5930, "but": 5931, "em": 5932, "Returns": 5933, "uni": 5934, "RE": 5935, "two": 5936, "vent": 5937, "_path": 5938, "\n    \n    ": 5939, "emp": 5940, "which": 5941, "ST": 5942, "ml": 5943, "sour": 5944, "12": 5945, "shape": 5946, "ID": 5947, "til": 5948, "_data": 5949, "oper": 5950, "Par": 5951, "image": 5952, "random": 5953, "conne": 5954, "add_": 5955, "exp": 5956, "document": 5957, "set_": 5958, "split": 5959, "assert": 5960, "ults": 5961, "over": 5962, "lib": 5963, "sol": 5964, "action": 5965, "ied": 5966, "u5": 5967, "max_": 5968, "calcul": 5969, "vis": 5970, "while": 5971, "Ar": 5972, "_list": 5973, "filen": 5974, "ds": 5975, "exist": 5976, "For": 5977, "requi": 5978, "find": 5979, "used": 5980, "ning": 5981, "loc": 5982, "To": 5983, "right": 5984, "AT": 5985, "items": 5986, "curren": 5987, "ec": 5988, "argument": 5989, "plan": 5990, "sto": 5991, "Type": 5992, "zer": 5993, "ies": 5994, "qual": 5995, "ef": 5996, "gori": 5997, "ted_": 5998, "status": 5999, "db": 6000, "left": 6001, "cript": 6002, "files": 6003, "How": 6004, "oc": 6005, "ull": 6006, "ry": 6007, "source": 6008, "command": 6009, "imum": 6010, "ant": 6011, "keys": 6012, "color": 6013, "query": 6014, "example": 6015, "En": 6016, "into": 6017, "hel": 6018, "pes": 6019, "multi": 6020, "rec": 6021, "plo": 6022, "own": 6023, "would": 6024, "secon": 6025, "sequ": 6026, "aph": 6027, "ew": 6028, "filename": 6029, "search": 6030, "root": 6031, "handle": 6032, "last": 6033, "http": 6034, "Pro": 6035, "ValueError": 6036, "lay": 6037, "tot": 6038, "dictionary": 6039, "ight": 6040, "let": 6041, "auth": 6042, "remove": 6043, "mar": 6044, "15": 6045, "OR": 6046, "sign": 6047, "rame": 6048, "mb": 6049, "sup": 6050, "new_": 6051, "target": 6052, "open": 6053, "da": 6054, "ak": 6055, "ine": 6056, "block": 6057, "verse": 6058, "direct": 6059, "List": 6060, "step": 6061, "integer": 6062, "content": 6063, "pack": 6064, "must": 6065, "characters": 6066, "conver": 6067, "modu": 6068, "gorith": 6069, "than": 6070, "host": 6071, "feren": 6072, "cs": 6073, "St": 6074, "tern": 6075, "\r\n    ": 6076, "matri": 6077, "Data": 6078, "ments": 6079, "alize": 6080, "E_": 6081, "present": 6082, "msg": 6083, "ource": 6084, "strings": 6085, "ating": 6086, "led": 6087, "ption": 6088, "api": 6089, "algorith": 6090, "lim": 6091, "net": 6092, "x_": 6093, "ast": 6094, "feat": 6095, "lower": 6096, "orm": 6097, "bug": 6098, "Se": 6099, "ution": 6100, "ate_": 6101, "attri": 6102, "top": 6103, "play": 6104, "enc": 6105, "train": 6106, "inclu": 6107, "\n          ": 6108, "filter": 6109, "ing_": 6110, "then": 6111, "core": 6112, "ub": 6113, "module": 6114, "reg": 6115, "ative": 6116, "_file": 6117, "complex": 6118, "ctor": 6119, "proper": 6120, "20": 6121, "event": 6122, "explain": 6123, "tree": 6124, "     ": 6125, "next": 6126, "level": 6127, "planation": 6128, "tup": 6129, "algorithm": 6130, "dep": 6131, "indi": 6132, "empty": 6133, "wid": 6134, "off": 6135, "nel": 6136, "EN": 6137, "dition": 6138, "address": 6139, "tag": 6140, "now": 6141, "ession": 6142, "dele": 6143, "sort": 6144, "11": 6145, "clo": 6146, "nums": 6147, "documentation": 6148, "yn": 6149, "ET": 6150, "man": 6151, "loop": 6152, "matrix": 6153, "sed": 6154, "logger": 6155, "Name": 6156, "debug": 6157, "Example": 6158, "af": 6159, "options": 6160, "store": 6161, "raw": 6162, "ges": 6163, "_p": 6164, "ref": 6165, "sequence": 6166, "tle": 6167, "results": 6168, "extra": 6169, "cle": 6170, "ron": 6171, "make": 6172, "lines": 6173, "test_": 6174, "lat": 6175, "ties": 6176, "mis": 6177, "ig": 6178, "ret": 6179, "_size": 6180, "_d": 6181, "when": 6182, "graph": 6183, "bet": 6184, "Get": 6185, "pop": 6186, "Lo": 6187, "context": 6188, "AN": 6189, "Un": 6190, "types": 6191, "script": 6192, "ield": 6193, "server": 6194, "32": 6195, "An": 6196, "Op": 6197, "func": 6198, "cls": 6199, "util": 6200, "specified": 6201, "mode": 6202, "Set": 6203, "por": 6204, "late": 6205, "md": 6206, "AP": 6207, "stack": 6208, "bool": 6209, "sorted": 6210, "num_": 6211, "found": 6212, "unique": 6213, "local": 6214, "n_": 6215, "parameters": 6216, "sele": 6217, "hash": 6218, "variable": 6219, "complexity": 6220, "tf": 6221, "ception": 6222, "ream": 6223, "replace": 6224, "ference": 6225, "ous": 6226, "nodes": 6227, "exec": 6228, "character": 6229, "UR": 6230, "initi": 6231, "reverse": 6232, "ES": 6233, "axis": 6234, "We": 6235, "non": 6236, "ava": 6237, "go": 6238, "Exception": 6239, "ss": 6240, "ump": 6241, "ent_": 6242, "ain": 6243, "parser": 6244, "input_": 6245, "_to_": 6246, "Che": 6247, "init_": 6248, "ween": 6249, "view": 6250, "rid": 6251, "gers": 6252, "cache": 6253, "provi": 6254, "sys": 6255, "25": 6256, "title": 6257, "stri": 6258, "dig": 6259, "between": 6260, "link": 6261, "ake": 6262, "cho": 6263, "rel": 6264, "struct": 6265, "ures": 6266, "contin": 6267, "current_": 6268, "amb": 6269, "Check": 6270, "prefix": 6271, "same": 6272, "copy": 6273, "chan": 6274, "AR": 6275, "war": 6276, "\r\n            ": 6277, "_dict": 6278, "mer": 6279, "64": 6280, "It": 6281, "multip": 6282, "bute": 6283, "ugh": 6284, "tuple": 6285, "norm": 6286, "plot": 6287, "resource": 6288, "Ke": 6289, "aliz": 6290, "met": 6291, "gre": 6292, "adata": 6293, "allow": 6294, "lob": 6295, "Gi": 6296, "You": 6297, "also": 6298, "integers": 6299, "fact": 6300, "setting": 6301, "Implement": 6302, "thro": 6303, "page": 6304, "ves": 6305, "AL": 6306, "total": 6307, "even": 6308, "seri": 6309, "kes": 6310, "wa": 6311, "mail": 6312, "T_": 6313, "dat": 6314, "ye": 6315, "Id": 6316, "DE": 6317, "mary": 6318, "p_": 6319, "client": 6320, "0000": 6321, "mi": 6322, "fore": 6323, "child": 6324, "req": 6325, "width": 6326, "02": 6327, "contains": 6328, "equal": 6329, "fields": 6330, "datetime": 6331, "_key": 6332, "ables": 6333, "dy": 6334, "side": 6335, "amples": 6336, "g_": 6337, "sure": 6338, "produ": 6339, "service": 6340, "cate": 6341, "ler": 6342, "attern": 6343, "need": 6344, "bre": 6345, "Mo": 6346, "through": 6347, "vol": 6348, "Key": 6349, "Di": 6350, "lease": 6351, "day": 6352, "cted": 6353, "Given": 6354, "AS": 6355, "face": 6356, "way": 6357, "ambda": 6358, "m_": 6359, "represent": 6360, "stream": 6361, "space": 6362, "ize": 6363, "pair": 6364, "change": 6365, "buil": 6366, "password": 6367, "uration": 6368, "points": 6369, "there": 6370, "stem": 6371, "job": 6372, "dtype": 6373, "16": 6374, "origin": 6375, "86": 6376, "implementation": 6377, "ages": 6378, "cat": 6379, "gener": 6380, "ud": 6381, "mark": 6382, "sible": 6383, "99": 6384, "ending": 6385, "old": 6386, "resh": 6387, "lambda": 6388, "est_": 6389, "position": 6390, "long": 6391, "save": 6392, "connection": 6393, "maximum": 6394, "parent": 6395, "cu": 6396, "ustom": 6397, "ed_": 6398, "ression": 6399, "unt": 6400, "sk": 6401, "more": 6402, "objects": 6403, "session": 6404, "ran": 6405, "may": 6406, "header": 6407, "columns": 6408, "mes": 6409, "modif": 6410, "alph": 6411, "cent": 6412, "_in": 6413, "vid": 6414, "mod": 6415, "headers": 6416, "output_": 6417, "iz": 6418, "Add": 6419, "continue": 6420, "mon": 6421, "_get_": 6422, "wise": 6423, "v_": 6424, "description": 6425, "post": 6426, "ation_": 6427, "Str": 6428, "a_": 6429, "mid": 6430, "TI": 6431, "\n\n  ": 6432, "down": 6433, "dec": 6434, "colle": 6435, "from_": 6436, "html": 6437, "start_": 6438, "LO": 6439, "unk": 6440, "metadata": 6441, "delete": 6442, "ual": 6443, "second": 6444, "break": 6445, "batch": 6446, "channel": 6447, "parameter": 6448, "sample": 6449, "exists": 6450, "directory": 6451, "lang": 6452, "mask": 6453, "ult_": 6454, "Ch": 6455, "XX": 6456, "bytes": 6457, "lu": 6458, "optional": 6459, "box": 6460, "single": 6461, "ging": 6462, "idx": 6463, "limit": 6464, "Make": 6465, "parti": 6466, "find_": 6467, "senten": 6468, "mean": 6469, "ili": 6470, "nump": 6471, "tail": 6472, "queue": 6473, "like": 6474, "help": 6475, "network": 6476, "ors": 6477, "ases": 6478, "77": 6479, "int_": 6480, "device": 6481, "Ser": 6482, "pub": 6483, "sc": 6484, "AM": 6485, "record": 6486, "\n\t": 6487, "HT": 6488, "sq": 6489, "based": 6490, "ume": 6491, "__init_": 6492, "build": 6493, "__init__": 6494, "email": 6495, "takes": 6496, "ule": 6497, "termin": 6498, "ents": 6499, "summary": 6500, "coord": 6501, "ency": 6502, "visi": 6503, "cket": 6504, "timeout": 6505, "required": 6506, "merge": 6507, "Node": 6508, "LE": 6509, "frame": 6510, "pattern": 6511, "cale": 6512, "high": 6513, "regi": 6514, "numpy": 6515, "tiv": 6516, "them": 6517, "true": 6518, "sig": 6519, "File": 6520, "\n   ": 6521, "solution": 6522, "Gen": 6523, "indow": 6524, "section": 6525, "Note": 6526, "rt": 6527, "err": 6528, "identi": 6529, "stop": 6530, "utils": 6531, "option": 6532, "all_": 6533, "recur": 6534, "_value": 6535, "Parame": 6536, "after": 6537, "body": 6538, "offset": 6539, "upper": 6540, "metri": 6541, "wr": 6542, "labels": 6543, "sal": 6544, "\n\n                ": 6545, "common": 6546, "template": 6547, "\n                                    ": 6548, "ject_": 6549, "den": 6550, "sr": 6551, "medi": 6552, "sets": 6553, "show": 6554, "bit": 6555, "Po": 6556, "models": 6557, "als": 6558, "such": 6559, "og": 6560, "project": 6561, "specific": 6562, "possible": 6563, "ready": 6564, "zh": 6565, "uplic": 6566, "io": 6567, "enco": 6568, "formation": 6569, "AC": 6570, "env": 6571, "At": 6572, "full": 6573, "qui": 6574, "sm": 6575, "my": 6576, "ive": 6577, "sive": 6578, "respon": 6579, "verage": 6580, "_dir": 6581, "calculate": 6582, "location": 6583, "include": 6584, "defin": 6585, "ater": 6586, "ime": 6587, "ker": 6588, "times": 6589, "both": 6590, "ature": 6591, "custom": 6592, "ld": 6593, "end_": 6594, "rows": 6595, "glob": 6596, "30": 6597, "RO": 6598, "your": 6599, "expec": 6600, "require": 6601, "wri": 6602, "Test": 6603, "ster": 6604, "entry": 6605, "their": 6606, "u5e": 6607, "arguments": 6608, "IP": 6609, "thread": 6610, "lst": 6611, "fla": 6612, "ill": 6613, "ccess": 6614, "API": 6615, "wait": 6616, "asyn": 6617, "ever": 6618, "before": 6619, "ath": 6620, "abase": 6621, "or_": 6622, "create_": 6623, "FI": 6624, "functions": 6625, "sentence": 6626, "ash": 6627, "cer": 6628, "part": 6629, "pp": 6630, "CO": 6631, "exception": 6632, "less": 6633, "settings": 6634, "Explanation": 6635, "cell": 6636, "enum": 6637, "indices": 6638, "year": 6639, "min_": 6640, "SI": 6641, "height": 6642, "SE": 6643, "flow": 6644, "out_": 6645, "was": 6646, "errors": 6647, "remo": 6648, "tool": 6649, "Args": 6650, "pol": 6651, "strip": 6652, "encode": 6653, "cmd": 6654, "grid": 6655, "weigh": 6656, "in_": 6657, "access": 6658, "URL": 6659, "positive": 6660, "property": 6661, "LI": 6662, "stra": 6663, "neg": 6664, "proble": 6665, "cap": 6666, "tx": 6667, "sw": 6668, "0x": 6669, "attribute": 6670, "UT": 6671, "tell": 6672, "dest": 6673, "ber": 6674, "ful": 6675, "_url": 6676, "14": 6677, "ish": 6678, "_info": 6679, "without": 6680, "ese": 6681, "sche": 6682, "const": 6683, "math": 6684, "langu": 6685, "_r": 6686, "sions": 6687, "bound": 6688, "Num": 6689, "correct": 6690, "angle": 6691, "u6": 6692, "ps": 6693, "logging": 6694, "feature": 6695, "frequ": 6696, "mbol": 6697, "Col": 6698, "called": 6699, "dataset": 6700, "apping": 6701, "domain": 6702, "ify": 6703, "collection": 6704, "buff": 6705, "some": 6706, "bri": 6707, "doing": 6708, "umi": 6709, "lication": 6710, "ML": 6711, "gu": 6712, "18": 6713, "ense": 6714, "viron": 6715, "TO": 6716, "String": 6717, "methods": 6718, "Up": 6719, "13": 6720, "butes": 6721, "pul": 6722, "check_": 6723, "avail": 6724, "_sum": 6725, "Sh": 6726, "JS": 6727, "\n\t\t\t": 6728, "seg": 6729, "already": 6730, "meta": 6731, "ints": 6732, "xml": 6733, "distance": 6734, "it_": 6735, "vo": 6736, "binary": 6737, "explanation": 6738, "200": 6739, "desc": 6740, "score": 6741, "ditional": 6742, "NO": 6743, "features": 6744, "50": 6745, "DO": 6746, "ested": 6747, "compon": 6748, "Comp": 6749, "fici": 6750, "opts": 6751, "callback": 6752, "variables": 6753, "Ob": 6754, "\r\n\r\n": 6755, "product": 6756, "\n        \n        ": 6757, "https": 6758, "ib": 6759, "tmp": 6760, "ditionally": 6761, "mem": 6762, "Explain": 6763, "Parameters": 6764, "aly": 6765, "cord": 6766, "expression": 6767, "ment_": 6768, "squ": 6769, "24": 6770, "uses": 6771, "multiple": 6772, "checks": 6773, "igno": 6774, "_pro": 6775, "\n              ": 6776, "lient": 6777, "Ele": 6778, "_string": 6779, "cf": 6780, "Additionally": 6781, "exten": 6782, "brief": 6783, "imal": 6784, "clust": 6785, "ign": 6786, "stor": 6787, "Time": 6788, "S_": 6789, "estamp": 6790, "iled": 6791, "data_": 6792, "yield": 6793, "Invalid": 6794, "sn": 6795, "ferent": 6796, "information": 6797, "tor": 6798, "pulumi": 6799, "database": 6800, "8615": 6801, "tags": 6802, "zip": 6803, "starts": 6804, "Optional": 6805, "JSON": 6806, "optim": 6807, "most": 6808, "display": 6809, "system": 6810, "ility": 6811, "duplic": 6812, "ole": 6813, "target_": 6814, "provided": 6815, "sin": 6816, "keep": 6817, "containing": 6818, "zero": 6819, "      ": 6820, "operation": 6821, "cause": 6822, "different": 6823, "ets": 6824, "libr": 6825, "ules": 6826, "Not": 6827, "ice": 6828, "Frame": 6829, "warning": 6830, "vector": 6831, "ose": 6832, "of_": 6833, "negative": 6834, "problem": 6835, "environ": 6836, "uri": 6837, "dim": 6838, "_index": 6839, "web": 6840, "ner": 6841, "just": 6842, "pay": 6843, "attributes": 6844, "track": 6845, "edge": 6846, "ei": 6847, "201": 6848, "counts": 6849, "uid": 6850, "conf": 6851, "window": 6852, "TE": 6853, "diff": 6854, "iti": 6855, "tensor": 6856, "average": 6857, "close": 6858, "site": 6859, "Sub": 6860, "layer": 6861, "available": 6862, "1000": 6863, "ound": 6864, "requests": 6865, "parse_": 6866, "D_": 6867, "chunk": 6868, "ling": 6869, "spe": 6870, "hether": 6871, "convert": 6872, "abs": 6873, "peri": 6874, "Cal": 6875, "_h": 6876, "username": 6877, "l_": 6878, "inputs": 6879, "Fin": 6880, "default_": 6881, "minimum": 6882, "namespace": 6883, "they": 6884, "package": 6885, "interval": 6886, "mut": 6887, "anges": 6888, "Cl": 6889, "u5e02": 6890, "\n                 ": 6891, "Bu": 6892, "steps": 6893, "TP": 6894, "ped": 6895, "sty": 6896, "DI": 6897, "returned": 6898, "19": 6899, "auto": 6900, "lists": 6901, "detail": 6902, "ical": 6903, "syn": 6904, "dimen": 6905, "u77": 6906, "decode": 6907, "eve": 6908, "unit": 6909, "seq": 6910, "org": 6911, "dp": 6912, "timestamp": 6913, "count_": 6914, "interface": 6915, "small": 6916, "file_": 6917, "perform": 6918, "ends": 6919, "As": 6920, "Au": 6921, "_code": 6922, "see": 6923, "bar": 6924, "incre": 6925, "xy": 6926, "17": 6927, "greater": 6928, "Me": 6929, "aries": 6930, "u7701": 6931, "MA": 6932, "Conver": 6933, "language": 6934, "on_": 6935, "fit": 6936, "ses": 6937, "structure": 6938, "ial": 6939, "exclu": 6940, "depth": 6941, "b_": 6942, "combin": 6943, "Code": 6944, "ager": 6945, "\n\t\t\t\t": 6946, "Index": 6947, "fra": 6948, "memb": 6949, "mount": 6950, "correspon": 6951, "sid": 6952, "pk": 6953, "ular": 6954, "within": 6955, "seconds": 6956, "encoding": 6957, "container": 6958, "Path": 6959, "original": 6960, "effici": 6961, "Element": 6962, "send": 6963, "PO": 6964, "load_": 6965, "these": 6966, "usage": 6967, "built": 6968, "Run": 6969, "look": 6970, "lear": 6971, "configuration": 6972, "Field": 6973, "null": 6974, "etch": 6975, "ext_": 6976, "separ": 6977, "gets": 6978, "Iter": 6979, "success": 6980, "groups": 6981, "book": 6982, "user_": 6983, "       ": 6984, "CON": 6985, "Al": 6986, "tifi": 6987, "cy": 6988, "Bo": 6989, "paren": 6990, "ises": 6991, "larg": 6992, "UL": 6993, "\n                                                ": 6994, "ants": 6995, "buffer": 6996, "40": 6997, "distri": 6998, "Please": 6999, "conn": 7000, "ww": 7001, "pd": 7002, "list_": 7003, "dire": 7004, "ked": 7005, "defined": 7006, "properties": 7007, "name__": 7008, "reference": 7009, "operator": 7010, "Config": 7011, "TypeError": 7012, "transform": 7013, "r_": 7014, "dump": 7015, "els": 7016, "ids": 7017, "Wh": 7018, "33": 7019, "eld_": 7020, "Defa": 7021, "delta": 7022, "least": 7023, "ignore": 7024, "nd": 7025, " \n": 7026, "ING": 7027, "Initi": 7028, "CH": 7029, "cope": 7030, "region": 7031, "because": 7032, "scale": 7033, "symbol": 7034, "ward": 7035, "pers": 7036, "__name__": 7037, "_count": 7038, "radi": 7039, "chain": 7040, "mt": 7041, "bot": 7042, "AB": 7043, "ances": 7044, "UN": 7045, "ns": 7046, "provide": 7047, "visible": 7048, "volume": 7049, "\n           ": 7050, "how": 7051, "square": 7052, "Hel": 7053, "TY": 7054, "bed": 7055, "Finally": 7056, "ctx": 7057, "entity": 7058, "Com": 7059, "60": 7060, "text_": 7061, "User": 7062, "total_": 7063, "contro": 7064, "cases": 7065, "weights": 7066, "fail": 7067, "verbo": 7068, "Dict": 7069, "X_": 7070, " \n\n": 7071, "Qu": 7072, "coordin": 7073, "\n                  ": 7074, "plt": 7075, "ched": 7076, "On": 7077, "cation": 7078, "active": 7079, "execute": 7080, "enumerate": 7081, "000": 7082, "_str": 7083, "34": 7084, "ango": 7085, "until": 7086, "my_": 7087, "schema": 7088, "By": 7089, "TH": 7090, "lowercase": 7091, "super": 7092, "connect": 7093, "suppor": 7094, "mag": 7095, "std": 7096, "mock": 7097, "Pr": 7098, "account": 7099, "fn": 7100, "IO": 7101, "classes": 7102, "price": 7103, "helper": 7104, "straints": 7105, "vow": 7106, "analy": 7107, "ranch": 7108, "Des": 7109, "board": 7110, " \n    ": 7111, "bl": 7112, "sa": 7113, "added": 7114, "car": 7115, "know": 7116, "compute": 7117, "\n                      ": 7118, "mapping": 7119, "ier": 7120, "ving": 7121, "enable": 7122, "DataFrame": 7123, "letter": 7124, "sorted_": 7125, "\r\n                ": 7126, "previ": 7127, "expected": 7128, "next_": 7129, "either": 7130, "digit": 7131, "comment": 7132, "App": 7133, "35": 7134, "handler": 7135, "sist": 7136, "field_": 7137, "whether": 7138, "bro": 7139, "profile": 7140, "skip": 7141, "style": 7142, "paths": 7143, "f_": 7144, "last_": 7145, "sv": 7146, "letters": 7147, "digits": 7148, "Calcul": 7149, "proto": 7150, "_P": 7151, "ead": 7152, "vide": 7153, "Model": 7154, "invalid": 7155, "pas": 7156, "and_": 7157, "alpha": 7158, "depend": 7159, "vision": 7160, "parts": 7161, "plu": 7162, "patch": 7163, "cro": 7164, "print_": 7165, "frequency": 7166, "matches": 7167, "fier": 7168, "corresponding": 7169, "Number": 7170, "with_": 7171, "ont": 7172, "hist": 7173, "area": 7174, "getattr": 7175, "query_": 7176, "\n                       ": 7177, "ned": 7178, "Hand": 7179, "ort_": 7180, "ome": 7181, "payload": 7182, "thresh": 7183, "poch": 7184, "22": 7185, "stand": 7186, "jango": 7187, "occurren": 7188, "additional": 7189, "utf": 7190, "Requ": 7191, "onac": 7192, "lice": 7193, "operations": 7194, "Generate": 7195, "arrays": 7196, "stats": 7197, "created": 7198, "pow": 7199, "is_prime": 7200, "HTTP": 7201, "adding": 7202, "scri": 7203, "missing": 7204, "IS": 7205, "bab": 7206, "onacci": 7207, "amount": 7208, "storage": 7209, "force": 7210, "under": 7211, "determin": 7212, "word_": 7213, "89": 7214, "_config": 7215, "red_": 7216, "Per": 7217, "salt": 7218, "tokens": 7219, "condition": 7220, "been": 7221, "pairs": 7222, "dout": 7223, "activ": 7224, "resol": 7225, "distribu": 7226, "Class": 7227, "AD": 7228, "zone": 7229, "Or": 7230, "anti": 7231, "cursor": 7232, "Request": 7233, "Ra": 7234, "loss": 7235, "AG": 7236, "Cont": 7237, "polic": 7238, "iterate": 7239, "Array": 7240, "hex": 7241, "ific": 7242, "0001": 7243, "time_": 7244, "weight": 7245, "Equal": 7246, "Ac": 7247, "hasattr": 7248, "verbose": 7249, "Convert": 7250, "dro": 7251, "build_": 7252, "LOG": 7253, "US": 7254, "update_": 7255, "abo": 7256, "img": 7257, "children": 7258, "Object": 7259, "ensure": 7260, "alind": 7261, "application": 7262, "Fa": 7263, "Base": 7264, "ari": 7265, "retri": 7266, "direction": 7267, "_names": 7268, "three": 7269, "epoch": 7270, "stdout": 7271, "Inst": 7272, "80": 7273, "dates": 7274, "\n                         ": 7275, "Gro": 7276, "\n         ": 7277, "Read": 7278, "utes": 7279, "fill": 7280, "_t": 7281, "memory": 7282, "clean": 7283, "secu": 7284, "false": 7285, "month": 7286, "Stat": 7287, "_map": 7288, "answ": 7289, "edi": 7290, "MP": 7291, "olean": 7292, "cost": 7293, "src": 7294, "plugin": 7295, "substring": 7296, "v1": 7297, "_S": 7298, "et_": 7299, "ens": 7300, "want": 7301, "freq": 7302, "folder": 7303, "startswith": 7304, "Fun": 7305, "mented": 7306, "spa": 7307, "addr": 7308, "\n                                                        ": 7309, "add_argument": 7310, "ones": 7311, "cores": 7312, "Spec": 7313, "primes": 7314, "solve": 7315, "pool": 7316, "running": 7317, "TR": 7318, "edges": 7319, "Use": 7320, "ic_": 7321, "Lic": 7322, "sert_": 7323, "unicode": 7324, "series": 7325, "for_": 7326, "requirements": 7327, "stud": 7328, "Inter": 7329, "passed": 7330, "alized": 7331, "disable": 7332, "ways": 7333, "route": 7334, "lon": 7335, "annot": 7336, "\n             ": 7337, "k_": 7338, "\n                          ": 7339, "exc": 7340, "evalu": 7341, "metric": 7342, "i_": 7343, "fetch": 7344, "Log": 7345, "above": 7346, "tools": 7347, "lish": 7348, "\n                     ": 7349, "Do": 7350, "\n                   ": 7351, "bas": 7352, "remote": 7353, "dete": 7354, "cts": 7355, "cast": 7356, "remain": 7357, "56": 7358, "exit": 7359, "nested": 7360, "provid": 7361, "TION": 7362, "ason": 7363, "byte": 7364, "flu": 7365, "otherwise": 7366, "wrap": 7367, "\n       ": 7368, "90": 7369, "apper": 7370, "itu": 7371, "Update": 7372, "v2": 7373, "term": 7374, "redu": 7375, "extend": 7376, "messages": 7377, "bi": 7378, "Group": 7379, "arti": 7380, "vices": 7381, "numer": 7382, "Attri": 7383, "Text": 7384, "_version": 7385, "Dis": 7386, "event_": 7387, "public": 7388, "object_": 7389, "pip": 7390, "request_": 7391, "sum_": 7392, "instead": 7393, "cluster": 7394, "changes": 7395, "txt": 7396, "cols": 7397, "Tra": 7398, " \n        ": 7399, "\n               ": 7400, "ME": 7401, "note": 7402, "divisible": 7403, "old_": 7404, "Valid": 7405, "\n                             ": 7406, "gex": 7407, "na": 7408, "tick": 7409, "Wor": 7410, "zeros": 7411, "palind": 7412, "prec": 7413, "Build": 7414, "rate": 7415, "since": 7416, "categ": 7417, "insert": 7418, "ites": 7419, "Print": 7420, "FA": 7421, "rtype": 7422, "efficient": 7423, "as_": 7424, "rot": 7425, "decimal": 7426, "units": 7427, "choice": 7428, "repe": 7429, "setup": 7430, "recursive": 7431, "rome": 7432, "FF": 7433, "U0001": 7434, "ryp": 7435, "dict_": 7436, "oriz": 7437, "ics": 7438, "Find": 7439, "install": 7440, "_ids": 7441, "uring": 7442, "events": 7443, "details": 7444, "U0001f": 7445, "Remove": 7446, "fer": 7447, "log_": 7448, "trace": 7449, "begin": 7450, "MO": 7451, "All": 7452, "enter": 7453, "hal": 7454, "users": 7455, "quo": 7456, "states": 7457, "socket": 7458, "State": 7459, "Tree": 7460, "ping": 7461, "Initialize": 7462, "shif": 7463, "Java": 7464, "don": 7465, "dev": 7466, "rece": 7467, "ton": 7468, "layers": 7469, "previous": 7470, "Default": 7471, "sim": 7472, "uuid": 7473, "scope": 7474, "accep": 7475, "defini": 7476, "_con": 7477, "ER_": 7478, "special": 7479, "suf": 7480, "counter": 7481, "cannot": 7482, "generator": 7483, "repo": 7484, "indic": 7485, "asc": 7486, "await": 7487, "raph": 7488, "actions": 7489, "neigh": 7490, "real": 7491, "NAM": 7492, "\n                           ": 7493, "atta": 7494, "intern": 7495, "exceptions": 7496, "round": 7497, "Trans": 7498, "her": 7499, "ary_": 7500, "alle": 7501, "EL": 7502, "flat": 7503, "Arg": 7504, "person": 7505, "e_": 7506, "period": 7507, "nn": 7508, "consist": 7509, "read_": 7510, "_call": 7511, "allowed": 7512, "generated": 7513, "eded": 7514, "License": 7515, "See": 7516, "manager": 7517, "Mess": 7518, "existing": 7519, "Pre": 7520, "oci": 7521, "ensor": 7522, "assertEqual": 7523, "Calculate": 7524, "compar": 7525, "tem": 7526, "dd": 7527, "role": 7528, "1_": 7529, "card": 7530, "         ": 7531, "django": 7532, "ming": 7533, "cand": 7534, "lar": 7535, "IC": 7536, "permis": 7537, "mage": 7538, "mplemented": 7539, "run_": 7540, "ha": 7541, "ank": 7542, "23": 7543, "med": 7544, "rule": 7545, "use_": 7546, "make_": 7547, "ix": 7548, "dimension": 7549, "ins": 7550, "mu": 7551, "eval": 7552, "priv": 7553, "dri": 7554, "EC": 7555, "generate_": 7556, "scal": 7557, "regist": 7558, "images": 7559, "cb": 7560, "hy": 7561, "pose": 7562, "_state": 7563, "torch": 7564, "select": 7565, "attrs": 7566, "modified": 7567, "returning": 7568, "cies": 7569, "cd": 7570, "endpoint": 7571, "fy": 7572, "55": 7573, "SS": 7574, "ision": 7575, "ques": 7576, "roo": 7577, "DB": 7578, "id_": 7579, "\n                              ": 7580, "samples": 7581, "andas": 7582, "client_": 7583, "Hello": 7584, "contents": 7585, "Py": 7586, "complete": 7587, "ings": 7588, "outputs": 7589, "ogle": 7590, "ls": 7591, "meas": 7592, "Load": 7593, "ick": 7594, "swap": 7595, "tax": 7596, "_n": 7597, "Call": 7598, "pix": 7599, "_by_": 7600, "once": 7601, "assign": 7602, "flag": 7603, "There": 7604, "cir": 7605, "_group": 7606, "ries": 7607, "mand": 7608, "by_": 7609, "TODO": 7610, "cr": 7611, "prog": 7612, "nt": 7613, "ide": 7614, "ly_": 7615, "sqrt": 7616, "dot": 7617, "branch": 7618, "Count": 7619, "_length": 7620, "Message": 7621, "keyword": 7622, "ia": 7623, "boolean": 7624, "supported": 7625, "failed": 7626, "duplicate": 7627, "starting": 7628, "ources": 7629, "spli": 7630, "TYP": 7631, "curr": 7632, "gine": 7633, "dt": 7634, "prev": 7635, "tom": 7636, "take": 7637, "exclude": 7638, "descending": 7639, "alphab": 7640, "bits": 7641, "A_": 7642, "compare": 7643, "Client": 7644, "Conne": 7645, "fast": 7646, "cel": 7647, "answer": 7648, "2_": 7649, "validate": 7650, "library": 7651, "positions": 7652, "tract": 7653, "draw": 7654, "means": 7655, "forms": 7656, "_number": 7657, "neighb": 7658, "associ": 7659, "Then": 7660, "Attribute": 7661, "Max": 7662, "Iterate": 7663, "Sort": 7664, "threshold": 7665, "lied": 7666, "secre": 7667, "Af": 7668, "Other": 7669, "_spec": 7670, "EX": 7671, "prior": 7672, "subject": 7673, "tent_": 7674, "hed": 7675, "Mod": 7676, "has_": 7677, "center": 7678, "Fil": 7679, "unique_": 7680, "suffix": 7681, "verti": 7682, "36": 7683, "global": 7684, "cm": 7685, "coordinates": 7686, "sat": 7687, "extension": 7688, "share": 7689, "modules": 7690, "26": 7691, "stder": 7692, "commit": 7693, "vely": 7694, "grad": 7695, "large": 7696, "ditions": 7697, "component": 7698, "ligh": 7699, "tic": 7700, "Star": 7701, "Auth": 7702, "dle": 7703, "environment": 7704, "concat": 7705, "der_": 7706, "posit": 7707, "Le": 7708, "rep": 7709, "\n                                 ": 7710, "eline": 7711, "Sy": 7712, "alog": 7713, "partition": 7714, "uture": 7715, "_idx": 7716, "ically": 7717, "difference": 7718, "ved": 7719, "model_": 7720, "XXXX": 7721, "ination": 7722, "tered": 7723, "final": 7724, "HTML": 7725, "itch": 7726, "tasks": 7727, "rank": 7728, "hour": 7729, "apply": 7730, "filters": 7731, "gy": 7732, "sorting": 7733, "encies": 7734, "loads": 7735, "ndarray": 7736, "odd": 7737, "Sum": 7738, "Y_": 7739, "nan": 7740, "DF": 7741, "axes": 7742, "temper": 7743, "mit": 7744, "mach": 7745, "Event": 7746, "Parse": 7747, "_time": 7748, "21": 7749, "representation": 7750, "uppercase": 7751, "convert_": 7752, "ness": 7753, "ery": 7754, "async": 7755, "define": 7756, "radius": 7757, "kernel": 7758, "fs": 7759, "Function": 7760, "izer": 7761, "path_": 7762, "permut": 7763, "largest": 7764, "ily": 7765, "stderr": 7766, "identifier": 7767, "power": 7768, "csv": 7769, "about": 7770, "Image": 7771, "entries": 7772, "idden": 7773, "ascending": 7774, "defaults": 7775, "ana": 7776, "_token": 7777, "bal": 7778, "Tensor": 7779, "virt": 7780, "opt": 7781, "done": 7782, "_client": 7783, "sec": 7784, "vals": 7785, "parent_": 7786, "84": 7787, "So": 7788, "Each": 7789, "updated": 7790, "sider": 7791, "dered": 7792, "KeyError": 7793, "Constraints": 7794, "training": 7795, "bs": 7796, "six": 7797, "75": 7798, "ory_": 7799, "KE": 7800, "Map": 7801, "uff": 7802, "u4": 7803, "lot": 7804, "prints": 7805, "CI": 7806, "short": 7807, "Inte": 7808, "reduce": 7809, "every": 7810, "align": 7811, "reason": 7812, "solute": 7813, "flags": 7814, "lead": 7815, "inf": 7816, "initial": 7817, "_args": 7818, "Examples": 7819, "disk": 7820, "foo": 7821, "Status": 7822, "rm": 7823, "Ste": 7824, "96": 7825, "xi": 7826, "Be": 7827, "roll": 7828, "resources": 7829, "templ": 7830, "validation": 7831, "win": 7832, "static": 7833, "content_": 7834, "Imp": 7835, "palindrome": 7836, "extract": 7837, "Pri": 7838, "itude": 7839, "signal": 7840, "another": 7841, "player": 7842, "cip": 7843, "authenti": 7844, "conditions": 7845, "pick": 7846, "Lin": 7847, "GET": 7848, "fac": 7849, "vowels": 7850, "QL": 7851, "cred": 7852, "Table": 7853, "resp": 7854, "linked": 7855, "signature": 7856, "sql": 7857, "game": 7858, "author": 7859, "transaction": 7860, "_values": 7861, "necess": 7862, "ization": 7863, "days": 7864, "validate_": 7865, "pc": 7866, "ized": 7867, "ware": 7868, "cour": 7869, "project_": 7870, "ng": 7871, "instances": 7872, "colors": 7873, "push": 7874, "ru": 7875, "ences": 7876, "many": 7877, "ypes": 7878, "named": 7879, "Argument": 7880, "clear": 7881, "_C": 7882, "Mul": 7883, "_set": 7884, "iteration": 7885, "simple": 7886, "apsh": 7887, "member": 7888, "could": 7889, "cover": 7890, "calculate_": 7891, "processing": 7892, "\n                               ": 7893, "send_": 7894, "_node": 7895, "sort_": 7896, "SP": 7897, "chars": 7898, "needed": 7899, "resulting": 7900, "compile": 7901, "Oper": 7902, "Jo": 7903, "_class": 7904, "ED": 7905, "cc": 7906, "qa": 7907, "appropriate": 7908, "Gener": 7909, "ant_": 7910, "ues": 7911, "modify": 7912, "kind": 7913, "poly": 7914, "reach": 7915, "pad": 7916, "ek": 7917, "76": 7918, "MI": 7919, "ray_": 7920, "hook": 7921, "adj": 7922, "calls": 7923, "Info": 7924, "occurrences": 7925, "metrics": 7926, "sition": 7927, "median": 7928, "Date": 7929, "report": 7930, "Any": 7931, "absolute": 7932, "remaining": 7933, "regular": 7934, "tran": 7935, "obser": 7936, "28": 7937, "linear": 7938, "components": 7939, "DAT": 7940, "representing": 7941, "plat": 7942, "Sp": 7943, "dou": 7944, "seed": 7945, "_m": 7946, "embed": 7947, "_types": 7948, "Multi": 7949, "_format": 7950, "middle": 7951, "changed": 7952, "Int": 7953, "rout": 7954, "prediction": 7955, "assert_": 7956, "exact": 7957, "alization": 7958, "always": 7959, "pandas": 7960, "tore": 7961, "However": 7962, "pect": 7963, "support": 7964, "az": 7965, "lookup": 7966, "category": 7967, "commands": 7968, "cording": 7969, "_sy": 7970, "After": 7971, "batch_size": 7972, "sis": 7973, "policy": 7974, "QU": 7975, "wd": 7976, "loa": 7977, "channels": 7978, "noqa": 7979, "rity": 7980, "\r\n\r\n    ": 7981, "segment": 7982, "OP": 7983, "gate": 7984, "Line": 7985, "When": 7986, "come": 7987, "heap": 7988, "admin": 7989, "relation": 7990, "ops": 7991, "dic": 7992, "cp": 7993, "cade": 7994, "Process": 7995, "pointer": 7996, "fname": 7997, "Vers": 7998, "leep": 7999, "king": 8000, "write_": 8001, "VER": 8002, "specify": 8003, "appe": 8004, "lan": 8005, "result_": 8006, "sched": 8007, "tre": 8008, "_from_": 8009, "1e": 8010, "27": 8011, "ener": 8012, "factor": 8013, "credenti": 8014, "ga": 8015, "download": 8016, "Otherwise": 8017, "Version": 8018, "statement": 8019, "XML": 8020, "fine": 8021, "ferences": 8022, "ulation": 8023, "Man": 8024, " \n  ": 8025, "CT": 8026, "world": 8027, "sur": 8028, "ity_": 8029, "und_": 8030, "asci": 8031, "line_": 8032, "ith": 8033, "array_": 8034, "being": 8035, "Size": 8036, "filter_": 8037, "Len": 8038, "doesn": 8039, "backend": 8040, "div": 8041, "necessary": 8042, "Format": 8043, "pie": 8044, "normalize": 8045, "ability": 8046, "docs": 8047, "Item": 8048, "half": 8049, "ived": 8050, "alizer": 8051, "lap": 8052, "indent": 8053, "spaces": 8054, "grade": 8055, "Raises": 8056, "uation": 8057, "occur": 8058, "codes": 8059, "_obj": 8060, "release": 8061, "valid_": 8062, "cfg": 8063, "machine": 8064, "port_": 8065, "vars": 8066, "left_": 8067, "google": 8068, "alias": 8069, "links": 8070, "relative": 8071, "Vi": 8072, "Fib": 8073, "FAUL": 8074, "x1": 8075, "gg": 8076, "expr": 8077, "leg": 8078, "raises": 8079, "Clo": 8080, "retrieve": 8081, "regex": 8082, "tab": 8083, "tures": 8084, "NAME": 8085, "iterates": 8086, "rest": 8087, "atio": 8088, "agg": 8089, "DEFAUL": 8090, "subscri": 8091, "ired": 8092, "dr": 8093, "u4e": 8094, "definition": 8095, "buf": 8096, "right_": 8097, "Fibonacci": 8098, "\r\n\r\n        ": 8099, "IL": 8100, "sof": 8101, "ded_": 8102, "CS": 8103, "type_": 8104, "ION": 8105, "Enter": 8106, "_numbers": 8107, "according": 8108, "libraries": 8109, "click": 8110, "sequences": 8111, "probab": 8112, "fib": 8113, "attemp": 8114, "control": 8115, "aa": 8116, "OS": 8117, "calculates": 8118, "well": 8119, "Net": 8120, "first_": 8121, "sively": 8122, "_params": 8123, "temperature": 8124, "bucket": 8125, "standard": 8126, "cos": 8127, "thub": 8128, "BU": 8129, "orial": 8130, "none": 8131, "cing": 8132, "ie": 8133, "UP": 8134, "Sequ": 8135, "sent": 8136, "Step": 8137, "Token": 8138, "execut": 8139, "scores": 8140, "initialize": 8141, "lack": 8142, "s1": 8143, "registr": 8144, "init": 8145, "www": 8146, "constant": 8147, "serialize": 8148, "tuples": 8149, "ird": 8150, "point_": 8151, "city": 8152, "candid": 8153, "95": 8154, "effe": 8155, "duration": 8156, "sym": 8157, "rl": 8158, "xx": 8159, "unct": 8160, "measure": 8161, "font": 8162, "spect": 8163, "Dele": 8164, "quanti": 8165, "tk": 8166, "Integer": 8167, "actor": 8168, "master": 8169, "signed": 8170, "subprocess": 8171, "ctive": 8172, "Found": 8173, "known": 8174, "beta": 8175, "dims": 8176, "loye": 8177, "consider": 8178, "Query": 8179, "remove_": 8180, "Fe": 8181, "Result": 8182, "train_": 8183, "best": 8184, "fl": 8185, "256": 8186, "ANG": 8187, "promp": 8188, "protocol": 8189, "ENT": 8190, "selection": 8191, "Is": 8192, "hn": 8193, "destination": 8194, "oid": 8195, "eri": 8196, "engine": 8197, "internal": 8198, "packages": 8199, "hidden": 8200, "determine": 8201, "at_": 8202, "targets": 8203, "Column": 8204, "sleep": 8205, "safe": 8206, "local_": 8207, "expected_": 8208, "decor": 8209, "70": 8210, "duplicates": 8211, "_block": 8212, "\n\n                    ": 8213, "thing": 8214, "records": 8215, "overri": 8216, "brocade": 8217, "smallest": 8218, "cloud": 8219, "ip_": 8220, "future": 8221, "ars": 8222, "\n                                  ": 8223, "cum": 8224, "prop": 8225, "writ": 8226, "per_": 8227, "longest": 8228, "chron": 8229, "Parser": 8230, "slice": 8231, "matching": 8232, "New": 8233, "search_": 8234, "span": 8235, "enabled": 8236, "handling": 8237, "phone": 8238, "distribution": 8239, "drop": 8240, "ynam": 8241, "o_": 8242, "platform": 8243, "art": 8244, "play_": 8245, "ilar": 8246, "equ": 8247, "shift": 8248, "status_code": 8249, "acy": 8250, "od_": 8251, "during": 8252, "ifier": 8253, "security": 8254, "delete_": 8255, "VAL": 8256, "shell": 8257, "OF": 8258, "POST": 8259, "Uni": 8260, "associated": 8261, "removed": 8262, "represents": 8263, "quick": 8264, "_x": 8265, "HO": 8266, "supp": 8267, "py_": 8268, "td": 8269, "collections": 8270, "iss": 8271, "criter": 8272, "Instance": 8273, "s2": 8274, "7f": 8275, "stored": 8276, "return_": 8277, "ground": 8278, "aml": 8279, "FOR": 8280, "ceed": 8281, "31": 8282, "pid": 8283, "wal": 8284, "creates": 8285, "voc": 8286, "SQL": 8287, "501": 8288, "Context": 8289, "Script": 8290, "                                ": 8291, "fully": 8292, "va": 8293, "Command": 8294, "source_": 8295, "list1": 8296, "dx": 8297, "NS": 8298, "attach": 8299, "plot_": 8300, "98": 8301, "hol": 8302, "World": 8303, "reposit": 8304, "rc": 8305, "balance": 8306, "selected": 8307, "Task": 8308, "figure": 8309, "ki": 8310, "prin": 8311, "accur": 8312, "\n\n      ": 8313, "ost": 8314, "formed": 8315, "Of": 8316, "_1": 8317, "loaded": 8318, "correctly": 8319, "ification": 8320, "marks": 8321, "dumps": 8322, "reshape": 8323, "unctuation": 8324, "widget": 8325, "ws": 8326, "bottom": 8327, "creating": 8328, "checking": 8329, "order_": 8330, "fp": 8331, "\n                                   ": 8332, "tz": 8333, "ators": 8334, "66": 8335, "Start": 8336, "Service": 8337, "45": 8338, "manage": 8339, "ternal": 8340, "Open": 8341, "light": 8342, "ender": 8343, "course": 8344, "gene": 8345, "login": 8346, "One": 8347, "not_": 8348, "Only": 8349, "_to": 8350, "K_": 8351, "M_": 8352, "programming": 8353, "abc": 8354, "CR": 8355, "coding": 8356, "ATION": 8357, "INT": 8358, "dimensions": 8359, "Gu": 8360, "le_": 8361, "error_": 8362, "_of_": 8363, "ild_": 8364, "fd": 8365, "SubElement": 8366, "scen": 8367, "2D": 8368, "trig": 8369, "notifi": 8370, "written": 8371, "root_": 8372, "bind": 8373, "learn": 8374, "Exec": 8375, "\n\n\t\t": 8376, "Content": 8377, "approach": 8378, "deg": 8379, "double": 8380, "85": 8381, "AND": 8382, "github": 8383, "register": 8384, "ality": 8385, "Connection": 8386, "mesh": 8387, "deep": 8388, "Temp": 8389, "seen": 8390, "Filter": 8391, "ories": 8392, "driver": 8393, "iterable": 8394, "writer": 8395, "concaten": 8396, "View": 8397, "predict": 8398, "rules": 8399, "elem": 8400, "E501": 8401, "boxes": 8402, "addition": 8403, "urn": 8404, "theta": 8405, "L_": 8406, "base_": 8407, "updates": 8408, "including": 8409, "hello": 8410, "file_path": 8411, "44": 8412, "try_": 8413, "raw_": 8414, "ring": 8415, "argv": 8416, "CP": 8417, "\n     ": 8418, "\n                                     ": 8419, "Cur": 8420, "atom": 8421, "ATH": 8422, "sep": 8423, "scan": 8424, "ished": 8425, "dirname": 8426, "student": 8427, "feed": 8428, "flatten": 8429, "ship": 8430, "lengths": 8431, "255": 8432, "members": 8433, "execution": 8434, "employe": 8435, "Series": 8436, "proxy": 8437, "parsed": 8438, "factorial": 8439, "etc": 8440, "learning": 8441, "visited": 8442, "Window": 8443, "ually": 8444, "123": 8445, "moves": 8446, "simp": 8447, "process_": 8448, "async_": 8449, "End": 8450, "upload": 8451, "dictionaries": 8452, "tical": 8453, "reset": 8454, "warn": 8455, "sources": 8456, "_sort": 8457, "Tag": 8458, "configure": 8459, "transl": 8460, "header_": 8461, "29": 8462, "coords": 8463, "00000000": 8464, "percent": 8465, "_set_": 8466, "works": 8467, "diag": 8468, "api_": 8469, "bounds": 8470, "Search": 8471, "Resource": 8472, "zes": 8473, "ni": 8474, "free": 8475, "ented": 8476, "directly": 8477, "struc": 8478, "connected": 8479, "whites": 8480, "satis": 8481, "list2": 8482, "ERR": 8483, "wrapper": 8484, "logic": 8485, "Server": 8486, "Session": 8487, "punctuation": 8488, "sigma": 8489, "_model": 8490, "ons": 8491, "secret": 8492, "Setting": 8493, "_sp": 8494, "Vari": 8495, "samp": 8496, "warnings": 8497, "cles": 8498, "dst": 8499, "END": 8500, "team": 8501, "ture": 8502, "respec": 8503, "pet": 8504, "Cop": 8505, "Wid": 8506, "verify": 8507, "home": 8508, "comput": 8509, "_2": 8510, "Length": 8511, "comes": 8512, "Graph": 8513, "topic": 8514, "child_": 8515, "pipeline": 8516, "ares": 8517, "compati": 8518, " \n            ": 8519, "cook": 8520, "_pre": 8521, "sock": 8522, "merged": 8523, "vs": 8524, "Failed": 8525, "plotlib": 8526, "Address": 8527, "stdin": 8528, "97": 8529, "_table": 8530, "obtain": 8531, "Min": 8532, "udo": 8533, "issue": 8534, "along": 8535, "image_": 8536, "ks": 8537, "forward": 8538, "terms": 8539, "analysis": 8540, "Coun": 8541, "blocks": 8542, "increment": 8543, "actual": 8544, "chema": 8545, "mass": 8546, "iso": 8547, "GP": 8548, "MM": 8549, "reversed": 8550, "dirs": 8551, "audi": 8552, "services": 8553, "sha": 8554, "LE_": 8555, "desired": 8556, "hostname": 8557, "requires": 8558, "From": 8559, "issu": 8560, "user_id": 8561, "PC": 8562, "_v": 8563, "tests": 8564, "u8": 8565, "normal": 8566, "ptr": 8567, "archive": 8568, "buck": 8569, "FO": 8570, "velop": 8571, "fmt": 8572, "cular": 8573, "adds": 8574, "below": 8575, "simul": 8576, "DEFAULT_": 8577, "tively": 8578, "extensions": 8579, "render": 8580, "Import": 8581, "Your": 8582, "subset": 8583, "near": 8584, "bra": 8585, "s_to_": 8586, "key_": 8587, "poten": 8588, "IT": 8589, "37": 8590, "agent": 8591, "sensi": 8592, "iv": 8593, "git": 8594, "class__": 8595, "creen": 8596, "Sequence": 8597, "too": 8598, "pur": 8599, "repr": 8600, "lint": 8601, "fibonacci": 8602, "Ne": 8603, "yaml": 8604, "Fir": 8605, "performance": 8606, "pare": 8607, "src_": 8608, "capit": 8609, "Met": 8610, "binary_": 8611, "gri": 8612, "pts": 8613, "progress": 8614, "gment": 8615, "GER": 8616, "KEY": 8617, "adap": 8618, "_session": 8619, "similar": 8620, "ices": 8621, "display_": 8622, "shuff": 8623, "second_": 8624, "aggreg": 8625, "inser": 8626, "bins": 8627, "Runtime": 8628, "Wr": 8629, "t_name": 8630, "assume": 8631, "ctions": 8632, "mm": 8633, "yang": 8634, "dia": 8635, "structures": 8636, "ports": 8637, "conta": 8638, "priority": 8639, "eno": 8640, "Block": 8641, "inside": 8642, "Lab": 8643, "seudo": 8644, "needs": 8645, "third": 8646, "precision": 8647, "Qt": 8648, "distin": 8649, "credentials": 8650, "zz": 8651, "best_": 8652, "cted_": 8653, "Handle": 8654, "John": 8655, "question": 8656, "fc": 8657, "orted": 8658, "numeric": 8659, "extract_": 8660, "__class__": 8661, "CLI": 8662, "triangle": 8663, "Handler": 8664, "uint": 8665, "recursively": 8666, "Compute": 8667, "rs": 8668, "alled": 8669, "pages": 8670, "\r\n                    ": 8671, "import_": 8672, "ai": 8673, "umes": 8674, "_i": 8675, "vertex": 8676, "experi": 8677, "Te": 8678, "__main": 8679, "layout": 8680, "ban": 8681, "alt": 8682, "vowel": 8683, "ard_": 8684, "__main__": 8685, "Param": 8686, "very": 8687, "Meth": 8688, "week": 8689, "Ver": 8690, "ough": 8691, "Lay": 8692, "eli": 8693, "1c": 8694, "queries": 8695, "common_": 8696, "show_": 8697, "lip": 8698, "individ": 8699, "geo": 8700, "Copy": 8701, "uted": 8702, "minutes": 8703, "\n                                            ": 8704, "register_": 8705, "Sets": 8706, "gradi": 8707, "ste": 8708, "tries": 8709, "Now": 8710, "IG": 8711, "First": 8712, "json_": 8713, "             ": 8714, "permissions": 8715, "were": 8716, "whitespace": 8717, "four": 8718, "vot": 8719, "_label": 8720, "tt": 8721, "unpack": 8722, "button": 8723, "implemented": 8724, "x2": 8725, "deleted": 8726, "snapsh": 8727, "no_": 8728, "contri": 8729, "SU": 8730, "filepath": 8731, "JavaScript": 8732, "statist": 8733, "virtual": 8734, "AttributeError": 8735, "via": 8736, "formul": 8737, "Ve": 8738, "ascii": 8739, "quote": 8740, "requested": 8741, "Method": 8742, "descript": 8743, "separated": 8744, "potenti": 8745, "_samples": 8746, "still": 8747, "allows": 8748, "exactly": 8749, "vm": 8750, "gb": 8751, "criteria": 8752, "str1": 8753, "private": 8754, "confi": 8755, "mission": 8756, "Define": 8757, "_score": 8758, "Char": 8759, "AA": 8760, "proces": 8761, "ified": 8762, "retry": 8763, "padding": 8764, "endswith": 8765, "pkg": 8766, "recursion": 8767, "reader": 8768, "global_": 8769, "SION": 8770, "ress_": 8771, "_B": 8772, "encoded": 8773, "rb": 8774, "sity": 8775, "Reg": 8776, "Point": 8777, "ear": 8778, "cla": 8779, "ctypes": 8780, "start_time": 8781, "those": 8782, "05": 8783, "_request": 8784, "_M": 8785, "PRO": 8786, "readline": 8787, "handles": 8788, "history": 8789, "dynam": 8790, "\n\n\n\n": 8791, "Dist": 8792, "ache": 8793, "tables": 8794, "ark": 8795, "48": 8796, "ual_": 8797, "sole": 8798, "iterator": 8799, "OUT": 8800, "gges": 8801, "lag": 8802, "With": 8803, "generates": 8804, "file_name": 8805, "br": 8806, "maint": 8807, "sl": 8808, "node_": 8809, "delim": 8810, "Head": 8811, "callable": 8812, "itself": 8813, "tificate": 8814, "comparis": 8815, "Word": 8816, "str2": 8817, "bus": 8818, "lies": 8819, "HE": 8820, "500": 8821, "installed": 8822, "method_": 8823, "cells": 8824, "bad": 8825, "split_": 8826, "entr": 8827, "nx": 8828, "consecu": 8829, "made": 8830, "versions": 8831, "lex": 8832, "unknow": 8833, "maj": 8834, "speed": 8835, "_len": 8836, "occurrence": 8837, "71": 8838, "vec": 8839, "basic": 8840, "snip": 8841, "aving": 8842, "_RE": 8843, "alphabe": 8844, "sed_": 8845, "Requi": 8846, "calling": 8847, "_callback": 8848, "threads": 8849, "itor": 8850, "input_string": 8851, "deplo": 8852, "faces": 8853, "ended": 8854, "_batch": 8855, "examples": 8856, "cach": 8857, "resolve": 8858, "CL": 8859, "fri": 8860, "compo": 8861, "switch": 8862, "tware": 8863, "ss_": 8864, "ratio": 8865, "ced": 8866, "          ": 8867, "bb": 8868, "pred": 8869, "mg": 8870, "WAR": 8871, "matplotlib": 8872, "calculated": 8873, "39": 8874, "num2": 8875, "straint": 8876, "sizes": 8877, "phase": 8878, "indicating": 8879, "nl": 8880, "delay": 8881, "cut": 8882, "adjac": 8883, "pylint": 8884, "apple": 8885, "bility": 8886, "repository": 8887, "Proper": 8888, "basename": 8889, "avoid": 8890, "_cache": 8891, "46": 8892, "System": 8893, "follows": 8894, "encry": 8895, "vc": 8896, "vertices": 8897, "good": 8898, "addresses": 8899, "88": 8900, "dependencies": 8901, "segments": 8902, "randint": 8903, "_fn": 8904, "choices": 8905, "CE": 8906, "smaller": 8907, "oneous": 8908, "max_length": 8909, "float32": 8910, "_data_": 8911, "pivot": 8912, "chronous": 8913, "rup": 8914, "cus": 8915, "did": 8916, "Over": 8917, "\n                                      ": 8918, "num1": 8919, "ify_": 8920, "ilities": 8921, "element_": 8922, "blue": 8923, "pg": 8924, "constru": 8925, "alizes": 8926, "Go": 8927, "v4": 8928, "longest_": 8929, "blob": 8930, "adjust": 8931, "scr": 8932, "paralle": 8933, "ied_": 8934, "air": 8935, "reads": 8936, "My": 8937, "observ": 8938, "Regi": 8939, "Delete": 8940, "Pol": 8941, "sugges": 8942, "pixel": 8943, "v6": 8944, "\n                                       ": 8945, "Stream": 8946, "handl": 8947, "_g": 8948, "marker": 8949, "asing": 8950, "uti": 8951, "_ex": 8952, "levels": 8953, "fam": 8954, "equi": 8955, "brow": 8956, "Let": 8957, "choose": 8958, "jective": 8959, "esc": 8960, "Sele": 8961, "wait_": 8962, "_record": 8963, "_text": 8964, "peak": 8965, "room": 8966, "_ref": 8967, "Descri": 8968, "Norm": 8969, "video": 8970, "_is_": 8971, "pret": 8972, "Doc": 8973, "finally": 8974, "pan": 8975, "constraints": 8976, "publish": 8977, "MS": 8978, "_num": 8979, "IF": 8980, "phi": 8981, "arning": 8982, "_for_": 8983, "licit": 8984, "controll": 8985, "encryp": 8986, "store_": 8987, "Entry": 8988, "tech": 8989, "account_": 8990, "uple": 8991, "parsing": 8992, "she": 8993, "loader": 8994, "embedding": 8995, "provider": 8996, "_check": 8997, "ested_": 8998, "Ro": 8999, "ometry": 9000, "converted": 9001, "resid": 9002, "expand": 9003, "_from": 9004, "mock_": 9005, "tered_": 9006, "permutations": 9007, "RuntimeError": 9008, "trail": 9009, "converts": 9010, "neighbor": 9011, "t__": 9012, "menu": 9013, "individual": 9014, "override": 9015, "permission": 9016, "            ": 9017, "owner": 9018, "STR": 9019, "state_": 9020, "accept": 9021, "Su": 9022, "prompt": 9023, "cnt": 9024, "cpu": 9025, "interpol": 9026, "cid": 9027, "do_": 9028, "leading": 9029, "jobs": 9030, "coder": 9031, "ERROR": 9032, "currently": 9033, "Mat": 9034, "ji": 9035, "index_": 9036, "inner": 9037, "scalar": 9038, "orts": 9039, "icro": 9040, "ats": 9041, "_mode": 9042, "ped_": 9043, "Colle": 9044, "STAT": 9045, "band": 9046, "tention": 9047, "js": 9048, "04": 9049, "rol": 9050, "formula": 9051, "_sub": 9052, "Source": 9053, "ui": 9054, "consecutive": 9055, "mac": 9056, "Union": 9057, "restri": 9058, "And": 9059, "country": 9060, "Stor": 9061, "amma": 9062, "Retri": 9063, "Na": 9064, "SH": 9065, "parsed_": 9066, "exceed": 9067, "DIR": 9068, "s3": 9069, "group_": 9070, "cord_": 9071, "automat": 9072, "conside": 9073, "_rate": 9074, "intervals": 9075, "big": 9076, "intersection": 9077, "_log": 9078, "customer": 9079, "Match": 9080, "scheme": 9081, "Store": 9082, "format_": 9083, "pt_": 9084, "agraph": 9085, "considered": 9086, "variance": 9087, "estim": 9088, "dde": 9089, "views": 9090, "cker": 9091, "pytest": 9092, "prote": 9093, "astype": 9094, "increase": 9095, "ged": 9096, "42": 9097, "media": 9098, "annotation": 9099, "tile": 9100, "builder": 9101, "G_": 9102, "LOGGER": 9103, "amer": 9104, "Record": 9105, "db_": 9106, "devices": 9107, "refresh": 9108, "loops": 9109, "divis": 9110, "Network": 9111, "template_": 9112, "black": 9113, "rected": 9114, "reser": 9115, "gap": 9116, "u4e1c": 9117, "included": 9118, "Parameter": 9119, "Access": 9120, "q_": 9121, "cept": 9122, "identity": 9123, "dog": 9124, "snippet": 9125, "reversed_": 9126, "dl": 9127, "integr": 9128, "Form": 9129, "digest": 9130, "packet": 9131, "Manager": 9132, "Tri": 9133, "leaf": 9134, "activation": 9135, "proc": 9136, "filtered_": 9137, "u6c": 9138, "Next": 9139, "comments": 9140, "SO": 9141, "Ht": 9142, "failure": 9143, "runtime": 9144, "worker": 9145, "migr": 9146, "iterations": 9147, "keras": 9148, "pos_": 9149, "Settings": 9150, "name_": 9151, "p2": 9152, "multiply": 9153, "bash": 9154, "Row": 9155, "urther": 9156, "entifier": 9157, "distinct": 9158, "printed": 9159, "u5dde": 9160, "\n\n\n    ": 9161, "Sta": 9162, "piece": 9163, "ipy": 9164, "conversion": 9165, "marke": 9166, "Implemented": 9167, "38": 9168, "prev_": 9169, "\n\n\t": 9170, "runs": 9171, "ated_": 9172, "getter": 9173, "efficiently": 9174, "screen": 9175, "coordinate": 9176, "related": 9177, "Action": 9178, "NOT": 9179, "VM": 9180, "variant": 9181, "Loc": 9182, "workflow": 9183, "p1": 9184, "distributed": 9185, "gories": 9186, "chunks": 9187, "combination": 9188, "identifi": 9189, "accuracy": 9190, "grams": 9191, "stage": 9192, "Sup": 9193, "ert": 9194, "due": 9195, "ything": 9196, "cond": 9197, "again": 9198, "FL": 9199, "extra_": 9200, "df_": 9201, "descriptor": 9202, "CC": 9203, "Defaults": 9204, "\n                                         ": 9205, "top_": 9206, "ts_": 9207, "LOC": 9208, "shap": 9209, "division": 9210, "WH": 9211, "Sk": 9212, "constants": 9213, "thes": 9214, "prox": 9215, "Creates": 9216, "flush": 9217, "BO": 9218, "dit": 9219, "conv": 9220, "128": 9221, "combinations": 9222, "box_": 9223, "sensor": 9224, "mx": 9225, "highest": 9226, "Color": 9227, "formatted": 9228, "writing": 9229, "NotFound": 9230, "minion": 9231, "9999": 9232, "____": 9233, "03": 9234, "dfs": 9235, "lr": 9236, "got": 9237, "getting": 9238, "stock": 9239, "RA": 9240, "WS": 9241, "unknown": 9242, "logy": 9243, "Back": 9244, "seudocode": 9245, "an_": 9246, "mary_": 9247, "TYPE": 9248, "strate": 9249, "include_": 9250, "Split": 9251, "eff": 9252, "clone": 9253, "vocab": 9254, "SET": 9255, "Fo": 9256, "net_": 9257, "Dep": 9258, "save_": 9259, "_in_": 9260, "trip": 9261, "testing": 9262, "config_": 9263, "includes": 9264, "indexes": 9265, "fron": 9266, "Tuple": 9267, "places": 9268, "if_": 9269, "DS": 9270, "escape": 9271, "y1": 9272, "rag": 9273, "paragraph": 9274, "glish": 9275, "sho": 9276, "hours": 9277, "_fact": 9278, "quantity": 9279, "Case": 9280, "u5c": 9281, "population": 9282, "noti": 9283, "keywords": 9284, "maintain": 9285, "construct": 9286, "UM": 9287, "2d": 9288, "boot": 9289, "handle_": 9290, "echo": 9291, "iterating": 9292, "Options": 9293, "ural": 9294, "w_": 9295, "105": 9296, "EM": 9297, "probability": 9298, "alg": 9299, "reading": 9300, "pus": 9301, "cture": 9302, "guess": 9303, "mk": 9304, "anch": 9305, "original_": 9306, "Range": 9307, "initial_": 9308, "inv": 9309, "Names": 9310, "deploy": 9311, "inclusive": 9312, "authentication": 9313, "registry": 9314, "final_": 9315, "trigger": 9316, "certain": 9317, "tempor": 9318, "becomes": 9319, "Down": 9320, "organ": 9321, "travers": 9322, "ieve": 9323, "ongo": 9324, "\n                                           ": 9325, "dataset_": 9326, "Also": 9327, "ner_": 9328, "5f": 9329, "leq": 9330, "entire": 9331, "adv": 9332, "transpose": 9333, "_a": 9334, "havi": 9335, "47": 9336, "syntax": 9337, "datasets": 9338, "_with_": 9339, "obs": 9340, "hi": 9341, "larger": 9342, "           ": 9343, "prob": 9344, "Pass": 9345, "2f": 9346, "Could": 9347, "pen": 9348, "But": 9349, "issues": 9350, "iteritems": 9351, "edit": 9352, "CII": 9353, "Order": 9354, "oth": 9355, "ince": 9356, "locations": 9357, "ATE": 9358, "fu": 9359, "expon": 9360, "Pseudocode": 9361, "ASCII": 9362, "decorator": 9363, "applic": 9364, "sync": 9365, "optimizer": 9366, "exc_": 9367, "06": 9368, "Sign": 9369, "Builder": 9370, "kl": 9371, "Exp": 9372, "Counter": 9373, "respectively": 9374, "around": 9375, "_array": 9376, "sensitive": 9377, "background": 9378, "unch": 9379, "aves": 9380, "urls": 9381, "jump": 9382, "nu": 9383, "_start": 9384, "lug": 9385, "factors": 9386, "_and_": 9387, "content_type": 9388, "Using": 9389, "noise": 9390, "divid": 9391, "bg": 9392, "U0001f3": 9393, "layer_": 9394, "rase": 9395, "YY": 9396, "optimize": 9397, "viation": 9398, "nor": 9399, "mix": 9400, "memo": 9401, "repeated": 9402, "evaluate": 9403, "P_": 9404, "languages": 9405, "jection": 9406, "happ": 9407, "class_": 9408, "Emp": 9409, "overlap": 9410, "mething": 9411, "instr": 9412, "alth": 9413, "GB": 9414, "lik": 9415, "grid_": 9416, "bel": 9417, "att": 9418, "ROM": 9419, "aw": 9420, "SER": 9421, "ante": 9422, "_response": 9423, "PATH": 9424, "rp": 9425, "Storage": 9426, "ouse": 9427, "extmethods": 9428, "ulate": 9429, "mble": 9430, "timedelta": 9431, "acity": 9432, "WOR": 9433, "url_": 9434, "inder": 9435, "argin": 9436, "86159": 9437, "processes": 9438, "divide": 9439, "SELE": 9440, "Construct": 9441, "watch": 9442, "compatible": 9443, "SIZ": 9444, "strict": 9445, "received": 9446, "pointers": 9447, "clos": 9448, "ordered": 9449, "Http": 9450, "connections": 9451, "Level": 9452, "__sal": 9453, "Design": 9454, "ssh": 9455, "my_list": 9456, "moun": 9457, "ft": 9458, "expi": 9459, "usr": 9460, "Que": 9461, "partial": 9462, "aga": 9463, "external": 9464, "Auto": 9465, "fall": 9466, "symbols": 9467, "Send": 9468, "hosts": 9469, "Hash": 9470, "mil": 9471, "grees": 9472, "entities": 9473, "Polic": 9474, "u53": 9475, "soup": 9476, "Tar": 9477, "permutation": 9478, "sklearn": 9479, "dum": 9480, "ited": 9481, "context_": 9482, "frames": 9483, "Warning": 9484, "beginning": 9485, "OK": 9486, "fixed": 9487, "Change": 9488, "Sw": 9489, "tit": 9490, "render_": 9491, "Save": 9492, "Label": 9493, "PY": 9494, "auti": 9495, "removing": 9496, "dataframe": 9497, "URI": 9498, "Syn": 9499, "altern": 9500, "__salt__": 9501, "Variable": 9502, "Ge": 9503, "separate": 9504, "Wri": 9505, "employee": 9506, "_check_": 9507, "Pub": 9508, "b2": 9509, "vectors": 9510, "Cannot": 9511, "cross": 9512, "TS": 9513, "sentences": 9514, "random_": 9515, "behavi": 9516, "Description": 9517, "ument_": 9518, "eas": 9519, "date_": 9520, "statistics": 9521, "selector": 9522, "Box": 9523, "nb": 9524, "Mem": 9525, "schedule": 9526, "ential": 9527, "orization": 9528, "ESS": 9529, "slo": 9530, "timezone": 9531, "rh": 9532, "senti": 9533, "sub_": 9534, "Extract": 9535, "\n                                          ": 9536, "string1": 9537, "against": 9538, "artifact": 9539, "ous_": 9540, "ridge": 9541, "\n\t\t\t\t\t": 9542, "x0": 9543, "_out": 9544, "400": 9545, "degree": 9546, "Mis": 9547, "geometry": 9548, "ane": 9549, "phrase": 9550, "Logger": 9551, "Api": 9552, "presented": 9553, "precated": 9554, "eq": 9555, "78": 9556, "Stop": 9557, "able_": 9558, "Module": 9559, "logs": 9560, "href": 9561, "Ab": 9562, "equival": 9563, "limits": 9564, "latest": 9565, "predi": 9566, "_clo": 9567, "raised": 9568, "shuffle": 9569, "arange": 9570, "_the": 9571, "rele": 9572, "Device": 9573, "major": 9574, "_func": 9575, "DEBU": 9576, "pected": 9577, "YANG": 9578, "rer": 9579, "degrees": 9580, "deriv": 9581, "decre": 9582, "TreeNode": 9583, "autiful": 9584, "aper": 9585, "Determin": 9586, "formats": 9587, "might": 9588, "TER": 9589, "SELECT": 9590, "notification": 9591, "lite": 9592, "backup": 9593, "curve": 9594, "LD": 9595, "IDs": 9596, "zo": 9597, "neighbors": 9598, "andom": 9599, "Dataset": 9600, "\n\t\t\t\t\t\t": 9601, "_status": 9602, "Expected": 9603, "value_": 9604, "LS": 9605, "typing": 9606, "perm": 9607, "record_": 9608, "nearest": 9609, "patterns": 9610, "consists": 9611, "49": 9612, "Custom": 9613, "string2": 9614, "transport": 9615, "TYPE_": 9616, "pickle": 9617, "twi": 9618, "land": 9619, "subarray": 9620, "operators": 9621, "cryp": 9622, "processed": 9623, "subsequence": 9624, "filenames": 9625, "z_": 9626, "NotImplemented": 9627, "expressions": 9628, "endar": 9629, "Vector": 9630, "green": 9631, "annotations": 9632, "Bin": 9633, "icon": 9634, "FIX": 9635, "C_": 9636, "tivity": 9637, "CM": 9638, "candidate": 9639, "atures": 9640, "fh": 9641, "imen": 9642, "defaultdict": 9643, "ateg": 9644, "gt": 9645, "cen": 9646, "trun": 9647, "makes": 9648, "Produ": 9649, "templates": 9650, "357": 9651, "cwd": 9652, "entry_": 9653, "101": 9654, "console": 9655, "Cloud": 9656, "Page": 9657, "Ordered": 9658, "_pattern": 9659, "MOD": 9660, "os_": 9661, "sib": 9662, "seek": 9663, "Reference": 9664, "Option": 9665, "Exit": 9666, "_reg": 9667, "Whether": 9668, "currency": 9669, "coin": 9670, "Stand": 9671, "setter": 9672, "FROM": 9673, "86158": 9674, "rv": 9675, "parallel": 9676, "potential": 9677, "ism": 9678, "1111": 9679, "undle": 9680, "revision": 9681, "ii": 9682, "typ": 9683, "meets": 9684, "Web": 9685, "deseri": 9686, "tocol": 9687, "ders": 9688, "auto_": 9689, "_y": 9690, "bble": 9691, "predictions": 9692, "students": 9693, "ogram": 9694, "directories": 9695, "handlers": 9696, "\n            \n            ": 9697, "gamma": 9698, "Mode": 9699, "appear": 9700, "Queue": 9701, "anc": 9702, "_add_": 9703, "abspath": 9704, "acc": 9705, "roles": 9706, "Policy": 9707, "scipy": 9708, "years": 9709, "delimiter": 9710, "traceback": 9711, "removes": 9712, "ABLE": 9713, "_get": 9714, "_context": 9715, "65": 9716, "props": 9717, "yet": 9718, "stop_": 9719, "isfile": 9720, "finding": 9721, "Us": 9722, "Operation": 9723, "u9": 9724, "ALL": 9725, "trailing": 9726, "gl": 9727, "pdf": 9728, "findall": 9729, "chat": 9730, "field_name": 9731, "Seri": 9732, "peer": 9733, "png": 9734, "finish": 9735, "auth_": 9736, "Values": 9737, "_line": 9738, "something": 9739, "compres": 9740, "pars": 9741, "apply_": 9742, "Additional": 9743, "satisfi": 9744, "_path_": 9745, "CD": 9746, "Tim": 9747, "ered": 9748, "magic": 9749, "experiment": 9750, "catalog": 9751, "response_": 9752, "_date": 9753, "subclass": 9754, "ignored": 9755, "automatically": 9756, "attention": 9757, "gether": 9758, "later": 9759, "fg": 9760, "copy_": 9761, "plus": 9762, "export": 9763, "English": 9764, "ube": 9765, "arante": 9766, "objective": 9767, "exe": 9768, "subscription": 9769, "blank": 9770, "08": 9771, "lineno": 9772, "Gets": 9773, "horiz": 9774, "Params": 9775, "md5": 9776, "Contain": 9777, "impro": 9778, "ply_": 9779, "Fl": 9780, "Dir": 9781, "fect": 9782, "wards": 9783, "ST_": 9784, "uler": 9785, "rema": 9786, "submit": 9787, "plots": 9788, "1234": 9789, "holder": 9790, "cycle": 9791, "RI": 9792, "bubble": 9793, "ux": 9794, "gon": 9795, "PAR": 9796, "his": 9797, "bucket_": 9798, "PL": 9799, "DEL": 9800, "saved": 9801, "manif": 9802, "invo": 9803, "decl": 9804, "Since": 9805, "row_": 9806, "rotation": 9807, "loading": 9808, "license": 9809, "104": 9810, "IOError": 9811, "outer": 9812, "xs": 9813, "vas": 9814, "compute_": 9815, "together": 9816, "Unknown": 9817, "flux": 9818, "soft": 9819, "angles": 9820, "epochs": 9821, "esti": 9822, "Random": 9823, "tol": 9824, "rectangle": 9825, "paces": 9826, "ifies": 9827, "hen": 9828, "Tot": 9829, "fit_": 9830, "SIZE": 9831, "Enable": 9832, "ric": 9833, "__dict_": 9834, "Pool": 9835, "DD": 9836, "olution": 9837, "select_": 9838, "expect": 9839, "ndim": 9840, "adapter": 9841, "represented": 9842, "certificate": 9843, "s_list": 9844, "ross": 9845, "yy": 9846, "nested_": 9847, "_branch": 9848, "What": 9849, "transition": 9850, "__dict__": 9851, "59": 9852, "lc": 9853, "DEBUG": 9854, "ario": 9855, "u6c5f": 9856, "NA": 9857, "assigned": 9858, "applied": 9859, "eric": 9860, "completed": 9861, "quad": 9862, "u5357": 9863, "compil": 9864, "clip": 9865, "Red": 9866, "filtered": 9867, "F_": 9868, "audio": 9869, "ople": 9870, "custom_": 9871, "sections": 9872, "utili": 9873, "urllib": 9874, "_cmd": 9875, "categories": 9876, "ACK": 9877, "fru": 9878, "asynchronous": 9879, "hold": 9880, "fb": 9881, "deno": 9882, "trees": 9883, "ev": 9884, "design": 9885, "please": 9886, "circle": 9887, "hw": 9888, "zy": 9889, "vm_": 9890, "curr_": 9891, "server_": 9892, "Mon": 9893, "private_": 9894, "orig": 9895, "guarante": 9896, "setdefault": 9897, "energy": 9898, "Job": 9899, "ency_": 9900, "CONFI": 9901, "mime": 9902, "_frequ": 9903, "movi": 9904, "PS": 9905, "iform": 9906, "ropy": 9907, "func_": 9908, "dispatch": 9909, "LIN": 9910, "azure": 9911, "focus": 9912, "overwrite": 9913, "Cap": 9914, "identify": 9915, "calculation": 9916, "pretty": 9917, "finds": 9918, "closed": 9919, "successful": 9920, "Sim": 9921, "give": 9922, "Display": 9923, "a2": 9924, "ster_": 9925, "nc": 9926, "encoder": 9927, "park": 9928, "redirect": 9929, "verify_": 9930, "_k": 9931, "responses": 9932, "Widget": 9933, "minim": 9934, "block_": 9935, "COL": 9936, "Arguments": 9937, "px": 9938, "wo": 9939, "git_": 9940, "Header": 9941, "listen": 9942, "comparison": 9943, "Adds": 9944, "particular": 9945, "gradient": 9946, "eps": 9947, "operand": 9948, "Ref": 9949, "ql": 9950, "river": 9951, "arc": 9952, "Perform": 9953, "translate": 9954, "_frame": 9955, "Standard": 9956, "Ali": 9957, "repeat": 9958, "itertools": 9959, "VALU": 9960, "_base": 9961, "Layer": 9962, "setattr": 9963, "_files": 9964, "u6cb": 9965, "road": 9966, "Mer": 9967, "product_": 9968, "white": 9969, "ines": 9970, "access_token": 9971, "MIN": 9972, "vl": 9973, "ys": 9974, "dest_": 9975, "OrderedDict": 9976, "BAS": 9977, "Matri": 9978, "genes": 9979, "_message": 9980, "uth": 9981, "prepare": 9982, "who": 9983, "maps": 9984, "300": 9985, "cards": 9986, "appears": 9987, "cogn": 9988, "sum_of_": 9989, "staticmethod": 9990, "editor": 9991, "tun": 9992, "Const": 9993, "dn": 9994, "Cor": 9995, "Account": 9996, "t_id": 9997, "Windows": 9998, "IR": 9999, "monitor": 10000, "Train": 10001, "shared": 10002, "arm": 10003, "achieve": 10004, "Pack": 10005, "projects": 10006, "preser": 10007, "initialized": 10008, "allow_": 10009, "matrices": 10010, "shapes": 10011, "_paths": 10012, "ball": 10013, "attempts": 10014, "definitions": 10015, "tour": 10016, "label_": 10017, "ink": 10018, "union": 10019, "ftime": 10020, "Poly": 10021, "wiki": 10022, "better": 10023, "pout": 10024, "controller": 10025, "functionality": 10026, "agen": 10027, "PUT": 10028, "cert": 10029, "Comple": 10030, "bitwise": 10031, "longer": 10032, "resolution": 10033, "rf": 10034, "GR": 10035, "insert_": 10036, "_result": 10037, "family": 10038, "CRE": 10039, "equivalent": 10040, "connect_": 10041, "NotImplementedError": 10042, "Incre": 10043, "statements": 10044, "service_": 10045, "c2": 10046, "rad": 10047, "Validate": 10048, "pipe": 10049, "elist": 10050, "surface": 10051, "Configuration": 10052, "Property": 10053, "c1": 10054, "estring": 10055, "constraint": 10056, "Diction": 10057, "matched": 10058, "_freq": 10059, "diffi": 10060, "legend": 10061, "sli": 10062, "PRE": 10063, "u5c71": 10064, "clusters": 10065, "rgb": 10066, "ned_": 10067, "alphabet": 10068, "occ": 10069, "MAX_": 10070, "unded": 10071, "_csv": 10072, "plugins": 10073, "_l": 10074, "d_list": 10075, "Unicode": 10076, "cn": 10077, "_method": 10078, "VERSION": 10079, "umb": 10080, "u5b": 10081, "mgmt": 10082, "inspect": 10083, "effect": 10084, "Total": 10085, "chr": 10086, "_options": 10087, "sever": 10088, "percentage": 10089, "explicit": 10090, "y2": 10091, "logical": 10092, "These": 10093, "smo": 10094, "wrong": 10095, "Meta": 10096, "Link": 10097, "10000": 10098, "Replace": 10099, "dynamic": 10100, "async_req": 10101, "ierarch": 10102, "products": 10103, "simply": 10104, "outfile": 10105, "commun": 10106, "VE": 10107, "sender": 10108, "bon": 10109, "_cor": 10110, "coll": 10111, "91": 10112, "strftime": 10113, "ENT_": 10114, "Analy": 10115, "2000": 10116, "moment": 10117, "Unable": 10118, "cio": 10119, "Try": 10120, "whose": 10121, "rip": 10122, "fraction": 10123, "deprecated": 10124, "separator": 10125, "_scope": 10126, "LIC": 10127, "pull": 10128, "ERE": 10129, "\n        \n    ": 10130, "Flow": 10131, "factory": 10132, "converting": 10133, "cluster_": 10134, "software": 10135, "Matrix": 10136, "squares": 10137, "rho": 10138, "_with": 10139, "Vol": 10140, "cumul": 10141, "dbg": 10142, "ato": 10143, "cancel": 10144, "Ensure": 10145, "suggestion": 10146, "perc": 10147, "encryption": 10148, "Guang": 10149, "flask": 10150, "rehen": 10151, "u5e7f": 10152, "consum": 10153, "_max": 10154, "_duplic": 10155, "zen": 10156, "sums": 10157, "hard": 10158, "estimat": 10159, "ORT": 10160, "workers": 10161, "cached": 10162, "atabase": 10163, "\r\n        \r\n        ": 10164, "argparse": 10165, "Stack": 10166, "people": 10167, "_end": 10168, "topo": 10169, "yes": 10170, "fake": 10171, "Dec": 10172, "frequencies": 10173, "defines": 10174, "ather": 10175, "_cli": 10176, "ARE": 10177, "dating": 10178, "twe": 10179, "alloc": 10180, "subst": 10181, "54": 10182, "tensorflow": 10183, "sd": 10184, "_scale": 10185, "Metadata": 10186, "FS": 10187, "Feature": 10188, "adjacent": 10189, "rary": 10190, "policy_": 10191, "liter": 10192, "finished": 10193, "ower": 10194, "orical": 10195, "banana": 10196, "return_value": 10197, "_kwargs": 10198, "sil": 10199, "67": 10200, "walk": 10201, "Sec": 10202, "3_": 10203, "remainder": 10204, "micro": 10205, "img_": 10206, "WI": 10207, "\n                                             ": 10208, "Cho": 10209, "_error": 10210, "develop": 10211, "109": 10212, "cally": 10213, "data_type": 10214, "lean": 10215, "comprehen": 10216, "Target": 10217, "rop": 10218, "hyper": 10219, "_keys": 10220, "meaning": 10221, "whole": 10222, "Pa": 10223, "Document": 10224, "rating": 10225, "lower_": 10226, "prime_numbers": 10227, "Vis": 10228, "magn": 10229, "MAT": 10230, "divisor": 10231, "qs": 10232, "inplace": 10233, "Validation": 10234, "sical": 10235, "rev": 10236, "ffi": 10237, "ticks": 10238, "receive": 10239, "day_": 10240, "Rec": 10241, "_down": 10242, "ranges": 10243, "hood": 10244, "arith": 10245, "Wrapper": 10246, "DES": 10247, "margin": 10248, "Chan": 10249, "conson": 10250, "cov": 10251, "working": 10252, "Off": 10253, "stores": 10254, "sparse": 10255, "arr1": 10256, "Dictionary": 10257, "feature_": 10258, "arry": 10259, "Transform": 10260, "_json": 10261, "requirement": 10262, "parents": 10263, "java": 10264, "Program": 10265, "randomly": 10266, "modified_": 10267, "culty": 10268, "bul": 10269, "_create_": 10270, "Flask": 10271, "slow": 10272, "rea": 10273, "Beautiful": 10274, "concatenate": 10275, "interfaces": 10276, "equation": 10277, "amera": 10278, "rstrip": 10279, "fire": 10280, "registered": 10281, "sg": 10282, "58": 10283, "excluding": 10284, "cmap": 10285, "floor": 10286, "ently": 10287, "max_value": 10288, "catch": 10289, "aps": 10290, "hparams": 10291, "store_true": 10292, "Soup": 10293, "live": 10294, "provides": 10295, "recei": 10296, "hum": 10297, "Helper": 10298, "odd_": 10299, "Err": 10300, "Cell": 10301, "onal": 10302, "_width": 10303, "_squ": 10304, "NaN": 10305, "dy_": 10306, "Current": 10307, "s_dict": 10308, "ref_": 10309, "u200": 10310, "nth": 10311, "aster": 10312, "lier": 10313, "_regi": 10314, "TIME": 10315, "task_": 10316, "t1": 10317, "inher": 10318, "Stru": 10319, "Rel": 10320, "ips": 10321, "horizont": 10322, "Pe": 10323, "techni": 10324, "references": 10325, "ignore_": 10326, "cmd_": 10327, "utc": 10328, "constructor": 10329, "MAG": 10330, "supplied": 10331, "calculating": 10332, "pixels": 10333, "Project": 10334, "u200d": 10335, "_symbol": 10336, "_factor": 10337, "colo": 10338, "broad": 10339, "ssl": 10340, "uous": 10341, "started": 10342, "_mask": 10343, "Port": 10344, "contact": 10345, "Thread": 10346, "uniform": 10347, "behavior": 10348, "_range": 10349, "post_": 10350, "interest": 10351, "Lim": 10352, "int32": 10353, "stract": 10354, "phy": 10355, "validator": 10356, "distances": 10357, "Batch": 10358, "mechan": 10359, "km": 10360, "chosen": 10361, "Core": 10362, "detect": 10363, "CF": 10364, "resource_group": 10365, "Retrieve": 10366, "sentiment": 10367, "one_": 10368, "gz": 10369, "base64": 10370, "Top": 10371, "snapshot": 10372, "dimensional": 10373, "IND": 10374, "_matrix": 10375, "Ag": 10376, "notes": 10377, "iter_": 10378, "float64": 10379, "anum": 10380, "NN": 10381, "Django": 10382, "Template": 10383, "liance": 10384, "Checks": 10385, "1000000": 10386, "              ": 10387, "new_node": 10388, "Obj": 10389, "INFO": 10390, "approx": 10391, "ba": 10392, "_object": 10393, "napsh": 10394, "cti": 10395, "Must": 10396, "locale": 10397, "Plot": 10398, "EV": 10399, "cv": 10400, "catter": 10401, "IndexError": 10402, "reset_": 10403, "coeff": 10404, "review": 10405, "TIONS": 10406, "vlan": 10407, "making": 10408, "stride": 10409, "vor": 10410, "previous_": 10411, "Sample": 10412, "Direct": 10413, "_filename": 10414, "slug": 10415, "macro": 10416, "locals": 10417, "BeautifulSoup": 10418, "lags": 10419, "404": 10420, "Schema": 10421, "Multip": 10422, "Missing": 10423, "nums1": 10424, "ights": 10425, "XXXXXXXX": 10426, "_parse_": 10427, "Pos": 10428, "ImportError": 10429, "AUT": 10430, "sume": 10431, "sites": 10432, "multiplication": 10433, "Move": 10434, "LEN": 10435, "Bytes": 10436, "ensures": 10437, "_function": 10438, "mote": 10439, "gender": 10440, "end_time": 10441, "usion": 10442, "_w": 10443, "meet": 10444, "Post": 10445, "79": 10446, "Profile": 10447, "front": 10448, "useful": 10449, "mib": 10450, "conti": 10451, "cookie": 10452, "far": 10453, "Location": 10454, "countered": 10455, "salary": 10456, "pho": 10457, "Li": 10458, "going": 10459, "erroneous": 10460, "used_": 10461, "finite": 10462, "alignment": 10463, "weight_": 10464, "72": 10465, "direct_": 10466, "_un": 10467, "Rule": 10468, "Dif": 10469, "allen": 10470, "_filter": 10471, "Enti": 10472, "reply": 10473, "table_name": 10474, "deepcopy": 10475, "ferred": 10476, "_connection": 10477, "gcd": 10478, "bbox": 10479, "alphanum": 10480, "queryset": 10481, "outside": 10482, "Collection": 10483, "classifier": 10484, "zed": 10485, "subtract": 10486, "IM": 10487, "Copyright": 10488, "bc": 10489, "1024": 10490, "classification": 10491, "Car": 10492, "n1": 10493, "mention": 10494, "notation": 10495, "successfully": 10496, "shutil": 10497, "Fact": 10498, "pieces": 10499, "Show": 10500, "timer": 10501, "modulo": 10502, "RS": 10503, "orders": 10504, "executable": 10505, "_schema": 10506, "Cache": 10507, "traversal": 10508, "suit": 10509, "router": 10510, "non_": 10511, "N_": 10512, "capacity": 10513, "calendar": 10514, "eg": 10515, "contrib": 10516, "_item": 10517, "documents": 10518, "dc": 10519, "center_": 10520, "asyncio": 10521, "\n \n": 10522, "NE": 10523, "ANY": 10524, "deta": 10525, "prevent": 10526, "73": 10527, "pot": 10528, "tl": 10529, "immedi": 10530, "_level": 10531, "Ma": 10532, "onto": 10533, "attrib": 10534, "ret_": 10535, "ny": 10536, "manip": 10537, "OSError": 10538, "cv2": 10539, "wb": 10540, "attempt": 10541, "species": 10542, "FILE": 10543, "ULL": 10544, "decim": 10545, "_hist": 10546, "indicates": 10547, "checked": 10548, "asset": 10549, "ait": 10550, "table_": 10551, "secure": 10552, "Empty": 10553, "client_id": 10554, "cated": 10555, "browser": 10556, "Bad": 10557, "copi": 10558, "relev": 10559, "volumes": 10560, "sian": 10561, "Alice": 10562, "Recur": 10563, "ASS": 10564, "sorts": 10565, "nothing": 10566, "sco": 10567, "kill": 10568, "article": 10569, "_output": 10570, "friend": 10571, "_serialize": 10572, "AY": 10573, "Ph": 10574, "taken": 10575, "pagin": 10576, "Skip": 10577, "report_": 10578, "lif": 10579, "stry": 10580, "orient": 10581, "threading": 10582, "Tex": 10583, "latitude": 10584, "docker": 10585, "cuit": 10586, "sci": 10587, "ian": 10588, "               ": 10589, "kit": 10590, "mod_": 10591, "minute": 10592, "isdir": 10593, "formatter": 10594, "Optim": 10595, "Var": 10596, "health": 10597, "great": 10598, "\n                                              ": 10599, "__self": 10600, "initializes": 10601, "Usage": 10602, "occurs": 10603, "bias": 10604, "Def": 10605, "checksum": 10606, "framework": 10607, "address_": 10608, "Mapping": 10609, "LL": 10610, "Interface": 10611, "primary": 10612, "SSL": 10613, "Flo": 10614, "generating": 10615, "Main": 10616, "vertical": 10617, "encountered": 10618, "_shape": 10619, "_logger": 10620, "deviation": 10621, "activity": 10622, "canvas": 10623, "__self__": 10624, "Timeout": 10625, "d1": 10626, "toff": 10627, "guaranteed": 10628, "contra": 10629, "Extra": 10630, "floating": 10631, "Apply": 10632, "Work": 10633, "further": 10634, "act_": 10635, "various": 10636, "ensuring": 10637, "older": 10638, "RAN": 10639, "FLAG": 10640, "alphanumeric": 10641, "interpre": 10642, "substrings": 10643, "deca": 10644, "recip": 10645, "project_id": 10646, "modific": 10647, "oring": 10648, "configured": 10649, "WE": 10650, "TEX": 10651, "ace": 10652, "unit_": 10653, "AV": 10654, "sertion": 10655, "fee": 10656, "NING": 10657, "Allow": 10658, "OT": 10659, "other_": 10660, "relationship": 10661, "recogn": 10662, "u2": 10663, "ral": 10664, "Local": 10665, "y_train": 10666, "789": 10667, "2018": 10668, "loss_": 10669, "depart": 10670, "UB": 10671, "out_file": 10672, "executed": 10673, "Si": 10674, "manifest": 10675, "completion": 10676, "normalized": 10677, "avg": 10678, "periods": 10679, "Look": 10680, "_save": 10681, "inc": 10682, "processor": 10683, "09": 10684, "ero": 10685, "capitalize": 10686, "visit": 10687, "ush": 10688, "sta": 10689, "longitude": 10690, "Pers": 10691, "_prefix": 10692, "_meta": 10693, "\n                                               ": 10694, "ylabel": 10695, "arr2": 10696, "proj": 10697, "_for": 10698, "Channel": 10699, "restar": 10700, "offsets": 10701, "RGB": 10702, "indexed": 10703, "dash": 10704, "difficulty": 10705, "OB": 10706, "Mark": 10707, "Fetch": 10708, "Entity": 10709, "lexi": 10710, "disabled": 10711, "basestring": 10712, "Host": 10713, "nums2": 10714, "UI": 10715, "restore": 10716, "palindrom": 10717, "servers": 10718, "extracted": 10719, "Exist": 10720, "inverse": 10721, "Develop": 10722, "_cell": 10723, "_address": 10724, "43": 10725, "quiet": 10726, "detection": 10727, "Authenti": 10728, "produce": 10729, "slot": 10730, "map_": 10731, "_duplicates": 10732, "rpc": 10733, "building": 10734, "tc": 10735, "string_types": 10736, "Loop": 10737, "resize": 10738, "localhost": 10739, "asset_": 10740, "_min": 10741, "etree": 10742, "rounded": 10743, "X_train": 10744, "tb": 10745, "conven": 10746, "_or_": 10747, "USER": 10748, "pin": 10749, "mappings": 10750, "linalg": 10751, "body_": 10752, "be_": 10753, "closest": 10754, "native": 10755, "updating": 10756, "temporary": 10757, "resource_": 10758, "PE": 10759, "wx": 10760, "lyph": 10761, "general": 10762, "followed": 10763, "x00": 10764, "ude": 10765, "CTION": 10766, "performs": 10767, "books": 10768, "increasing": 10769, "dependent": 10770, "_fra": 10771, "histogram": 10772, "fits": 10773, "001": 10774, "rd": 10775, "selected_": 10776, "a1": 10777, "180": 10778, "rename": 10779, "HEAD": 10780, "emon": 10781, "s_by_": 10782, "Results": 10783, "fr": 10784, "corre": 10785, "_update": 10786, "ward_": 10787, "asse": 10788, "ann": 10789, "anging": 10790, "Control": 10791, "t2": 10792, "Url": 10793, "actually": 10794, "persist": 10795, "emit": 10796, "docstring": 10797, "san": 10798, "Sof": 10799, "market": 10800, "RF": 10801, "nm": 10802, "variant_": 10803, "compound": 10804, "incorrect": 10805, "recomm": 10806, "CA": 10807, "mibBuilder": 10808, "density": 10809, "W_": 10810, "relu": 10811, "carry": 10812, "__opts": 10813, "REQU": 10814, "3d": 10815, "l2": 10816, "asarray": 10817, "UID": 10818, "milli": 10819, "exc_info": 10820, "__opts__": 10821, "wave": 10822, "Age": 10823, "wn": 10824, "Last": 10825, "sius": 10826, "parenthes": 10827, "gpu": 10828, "81": 10829, "shut": 10830, "fm": 10831, "__file": 10832, "Generator": 10833, "Boolean": 10834, "pm": 10835, "keyid": 10836, "MET": 10837, "u89": 10838, "xlabel": 10839, "house": 10840, "across": 10841, "capture": 10842, "_rel": 10843, "traverse": 10844, "anim": 10845, "_field": 10846, "signific": 10847, "enough": 10848, "RPC": 10849, "ffff": 10850, "export_": 10851, "accounts": 10852, "mor": 10853, "api_key": 10854, "Types": 10855, "CSV": 10856, "PER": 10857, "WHERE": 10858, "mapped": 10859, "_val": 10860, "problems": 10861, "ben": 10862, "short_": 10863, "coming": 10864, "http_info": 10865, "endpoint_": 10866, "gt_": 10867, "_remove": 10868, "\n\n\n        ": 10869, "xyz": 10870, "boundary": 10871, "station": 10872, "dity": 10873, "collect": 10874, "chart": 10875, "Scal": 10876, "_sample": 10877, "illar": 10878, "SD": 10879, "Maximum": 10880, "moving": 10881, "ij": 10882, "taking": 10883, "utions": 10884, "plane": 10885, "compress": 10886, "alo": 10887, "Some": 10888, "clock": 10889, "WN": 10890, "NOTE": 10891, "perio": 10892, "candidates": 10893, "website": 10894, "74": 10895, "void": 10896, "Lef": 10897, "tage": 10898, "SN": 10899, "expir": 10900, "Identifier": 10901, "Append": 10902, "Bas": 10903, "zoom": 10904, "coverage": 10905, "tx_": 10906, "Determine": 10907, "crop": 10908, "bundle": 10909, "GI": 10910, "water": 10911, "versionadded": 10912, "cipher": 10913, "gp": 10914, "assumes": 10915, "snapsho": 10916, "metric_": 10917, "crypto": 10918, "passing": 10919, "allowed_": 10920, "Lib": 10921, "quality": 10922, "Rest": 10923, "Mag": 10924, "higher": 10925, "master_": 10926, "afe": 10927, "NULL": 10928, "strategy": 10929, "force_": 10930, "UD": 10931, "inds": 10932, "atoms": 10933, "THE": 10934, "performed": 10935, "_labels": 10936, "_hash": 10937, "implements": 10938, "hit": 10939, "hass": 10940, "r2": 10941, "algorithms": 10942, "AL_": 10943, "u897f": 10944, "Dyn": 10945, "vation": 10946, "Merge": 10947, "WITH": 10948, "3D": 10949, "prices": 10950, "particip": 10951, "Clust": 10952, "\n\n                        ": 10953, "svp": 10954, "bit_": 10955, "Linear": 10956, "reached": 10957, "model_name": 10958, "Evalu": 10959, "abbab": 10960, "bn": 10961, "improve": 10962, "lazy": 10963, "comma": 10964, "isn": 10965, "Fi": 10966, "scenario": 10967, "eves": 10968, "intro": 10969, "dong": 10970, "dence": 10971, "Select": 10972, "Fail": 10973, "uch": 10974, "revers": 10975, "Ter": 10976, "texts": 10977, "scatter": 10978, "convert_to_": 10979, "configs": 10980, "quotes": 10981, "ptions": 10982, "efficients": 10983, "MAP": 10984, "accordingly": 10985, "PIP": 10986, "shown": 10987, "__file__": 10988, "Ax": 10989, "text_type": 10990, "translation": 10991, "specification": 10992, "html_": 10993, "bers": 10994, "GO": 10995, "compression": 10996, "occup": 10997, "u6e": 10998, "replaced": 10999, "bed_": 11000, "_on_": 11001, "remote_": 11002, "windows": 11003, "api_version": 11004, "sel": 11005, "ACE": 11006, "dot_": 11007, "calc": 11008, "_rep": 11009, "Guangdong": 11010, "projection": 11011, "exchange": 11012, "clou": 11013, "Enum": 11014, "computed": 11015, "Left": 11016, "\n                                                    ": 11017, "proxy_": 11018, "verb": 11019, "_dataset": 11020, "presence": 11021, "regions": 11022, "replacement": 11023, "deli": 11024, "approxim": 11025, "_st": 11026, "CRIP": 11027, "batch_": 11028, "EST": 11029, "beh": 11030, "challen": 11031, "ays": 11032, "atype": 11033, "Protocol": 11034, "_sup": 11035, "few": 11036, "Exten": 11037, "serializ": 11038, "env_": 11039, "Mongo": 11040, "Grid": 11041, "zhou": 11042, "main_": 11043, "Bob": 11044, "crete": 11045, "append_": 11046, "sample_": 11047, "magnitude": 11048, "wall": 11049, "today": 11050, "path_helper": 11051, "json_data": 11052, "decla": 11053, "                 ": 11054, "\r\n\t\t": 11055, "tai": 11056, "rende": 11057, "dm": 11058, "USER_": 11059, "rypt": 11060, "ap_": 11061, "required_": 11062, "0f": 11063, "mas": 11064, "consisting": 11065, "rr": 11066, "enses": 11067, "Parti": 11068, "TUR": 11069, "led_": 11070, "displayed": 11071, "Volume": 11072, "deletion": 11073, "ration": 11074, "h1": 11075, "dialog": 11076, "thumb": 11077, "_dtype": 11078, "inner_": 11079, "SIG": 11080, "abilities": 11081, "Required": 11082, "Lang": 11083, "Child": 11084, "checkpoint": 11085, "nr": 11086, "boto": 11087, "assertTrue": 11088, "ancest": 11089, "Del": 11090, "_path_helper": 11091, "Button": 11092, "Aler": 11093, "u65": 11094, "ift": 11095, "fro": 11096, "Should": 11097, "tree_": 11098, "sides": 11099, "container_": 11100, "active_": 11101, "URE": 11102, "Unit": 11103, "trim": 11104, "orig_": 11105, "strain": 11106, "coefficients": 11107, "unittest": 11108, "comprehension": 11109, "Right": 11110, "never": 11111, "likeli": 11112, "CONFIG": 11113, "ported": 11114, "memory_": 11115, "svn": 11116, "stems": 11117, "DATA": 11118, "yang_name": 11119, "supports": 11120, "rest_name": 11121, "answers": 11122, "Ed": 11123, "512": 11124, "readable": 11125, "found_": 11126, "Inside": 11127, "Converts": 11128, "node_id": 11129, "code_": 11130, "VI": 11131, "Register": 11132, "_build_": 11133, "klass": 11134, "serial": 11135, "largest_": 11136, "Bit": 11137, "average_": 11138, "Google": 11139, "fails": 11140, "Rsvp": 11141, "ado": 11142, "AGE_": 11143, "arrange": 11144, "Ip": 11145, "beam": 11146, "TF": 11147, "runner": 11148, "described": 11149, "fon": 11150, "parse_args": 11151, "Prime": 11152, "base_url": 11153, "pending": 11154, "job_id": 11155, "job_": 11156, "AD_": 11157, "lio": 11158, "iness": 11159, "dian": 11160, "ONE": 11161, "primary_": 11162, "logits": 11163, "ipv6": 11164, "Specifies": 11165, "tau": 11166, "ov": 11167, "anced": 11168, "n2": 11169, "apps": 11170, "Binary": 11171, "trying": 11172, "satisfy": 11173, "Reverse": 11174, "pb": 11175, "anchor": 11176, "start_date": 11177, "ip_address": 11178, "07": 11179, "properly": 11180, "pend": 11181, "CDF": 11182, "recipi": 11183, "several": 11184, "printing": 11185, "akes": 11186, "writes": 11187, "max_sum": 11188, "Long": 11189, "swaps": 11190, "roy": 11191, "makedirs": 11192, "orth": 11193, "lica": 11194, "efficiency": 11195, "broadcast": 11196, "to_dict": 11197, "full_": 11198, "jiang": 11199, "hwRsvp": 11200, "hwRsvpTe": 11201, "assignment": 11202, "y_test": 11203, "admin_": 11204, "Mi": 11205, "transfer": 11206, "sqlite": 11207, "_all": 11208, "Alert": 11209, "999": 11210, "stick": 11211, "XOR": 11212, "Git": 11213, "transi": 11214, "ISO": 11215, "notebook": 11216, "cached_": 11217, "extr": 11218, "partitions": 11219, "class_name": 11220, "roid": 11221, "pred_": 11222, "total_sum": 11223, "Flag": 11224, "geom": 11225, "movie": 11226, "exponent": 11227, "u5317": 11228, "config_file": 11229, "optimized": 11230, "applicable": 11231, "output_dir": 11232, "dicts": 11233, "Texts": 11234, "lt": 11235, "1f": 11236, "ingle": 11237, "_match": 11238, "_fields": 11239, "SM": 11240, "d2": 11241, "Bax": 11242, "arbit": 11243, "Tool": 11244, "usu": 11245, "terminal": 11246, "redis": 11247, "sending": 11248, "Engine": 11249, "merge_sort": 11250, "_e": 11251, "4b": 11252, "compressed": 11253, "XY": 11254, "Descript": 11255, "Close": 11256, "rdf": 11257, "Compon": 11258, "vider": 11259, "hierarch": 11260, "corpus": 11261, "_system": 11262, "yi": 11263, "gno": 11264, "creation": 11265, "depending": 11266, "cevc": 11267, "Provide": 11268, "ID_": 11269, "bank": 11270, "sudo": 11271, "ja": 11272, "gress": 11273, "69": 11274, "submission": 11275, "ln": 11276, "Directory": 11277, "ka": 11278, "instructions": 11279, "animal": 11280, "ascii_": 11281, "URLs": 11282, "EMA": 11283, "rest_": 11284, "hooks": 11285, "sampling": 11286, "initializer": 11287, "having": 11288, "calc_": 11289, "placeholder": 11290, "discover": 11291, "\r\n                        ": 11292, "weather": 11293, "splits": 11294, "only_": 11295, "loadTexts": 11296, "_msg": 11297, "encoded_": 11298, "satisfies": 11299, "isdigit": 11300, "rem": 11301, "_color": 11302, "TestCase": 11303, "acces": 11304, "SUB": 11305, "Does": 11306, "YES": 11307, "human": 11308, "filled": 11309, "ategory": 11310, "workspace": 11311, "ceil": 11312, "_update_": 11313, "Wait": 11314, "lying": 11315, "TOR": 11316, "regard": 11317, "explo": 11318, "MIT": 11319, "Container": 11320, "ither": 11321, "2017": 11322, "lished": 11323, "group_id": 11324, "alphabetical": 11325, "quee": 11326, "decoder": 11327, "u6cb3": 11328, "is_palindrome": 11329, "calib": 11330, "_0": 11331, "Bar": 11332, "existing_": 11333, "dense": 11334, "hot": 11335, "Cluster": 11336, "won": 11337, "soci": 11338, "behind": 11339, "UTC": 11340, "part_": 11341, "derivative": 11342, "dtypes": 11343, "caller": 11344, "Limit": 11345, "employees": 11346, "ragma": 11347, "r1": 11348, "leave": 11349, "performing": 11350, "setup_": 11351, "s_file": 11352, "hexa": 11353, "_cap": 11354, "elap": 11355, "DEF": 11356, "reasoning": 11357, "irth": 11358, "tems": 11359, "company": 11360, "_cat": 11361, "_op": 11362, "Rece": 11363, "throw": 11364, "domains": 11365, "_tree": 11366, "Agent": 11367, "interse": 11368, "horizontal": 11369, "edit_": 11370, "urity": 11371, "getLogger": 11372, "dependency": 11373, "Admin": 11374, "uld_": 11375, "rng": 11376, "iers": 11377, "Pop": 11378, "corrected": 11379, "Shape": 11380, "Ori": 11381, "encoder_": 11382, "buffer_": 11383, "border": 11384, "pn": 11385, "int64": 11386, "Dense": 11387, "Descriptor": 11388, "stone": 11389, "axis_": 11390, "Install": 11391, "ony": 11392, "BE": 11393, "renhe": 11394, "aliases": 11395, "segment_": 11396, "learning_rate": 11397, "equals": 11398, "considering": 11399, "_df": 11400, "todo": 11401, "s_name": 11402, "evaluation": 11403, "\n                                                 ": 11404, "ju": 11405, "fasta": 11406, "relevant": 11407, "ERS": 11408, "tokenize": 11409, "poll": 11410, "notific": 11411, "Rep": 11412, "polygon": 11413, "contour": 11414, "52": 11415, "cube": 11416, "callbacks": 11417, "X_test": 11418, "FIL": 11419, "full_name": 11420, "posed": 11421, "orize": 11422, "lh": 11423, "hrenhe": 11424, "RES": 11425, "utf8": 11426, "ussian": 11427, "LU": 11428, " \n                ": 11429, "trained": 11430, "oauth": 11431, "module_name": 11432, "2019": 11433, "dra": 11434, "CAS": 11435, "_indices": 11436, "Salt": 11437, "RETUR": 11438, "AUTH": 11439, "variants": 11440, "Notes": 11441, "Apa": 11442, "should_": 11443, "script_": 11444, "demon": 11445, "xrange": 11446, "rotate": 11447, "gateway": 11448, "suc": 11449, "bise": 11450, "JEC": 11451, "Sty": 11452, "padd": 11453, "obtained": 11454, "likelihood": 11455, "inger": 11456, "closing": 11457, "communic": 11458, "u96": 11459, "PIPE": 11460, "Erroneous": 11461, "FLAGS": 11462, "insensitive": 11463, "fox": 11464, "Fore": 11465, "2020": 11466, "encrypted_": 11467, "Password": 11468, "zA": 11469, "refs": 11470, "pragma": 11471, "much": 11472, "exit_": 11473, "_input": 11474, "skip_": 11475, "item_": 11476, "anything": 11477, "_find_": 11478, "s_path": 11479, "lugin": 11480, "generic": 11481, "irt": 11482, "indicate": 11483, "_read": 11484, "reak": 11485, "alive": 11486, "_j": 11487, "heet": 11488, "rum": 11489, "suppress": 11490, "reet": 11491, "deps": 11492, "_init": 11493, "Edit": 11494, "query_parameters": 11495, "lated_": 11496, "Execution": 11497, "wrapped": 11498, "Ho": 11499, "daemon": 11500, "_dim": 11501, "S3": 11502, "goal": 11503, "Require": 11504, "dummy": 11505, "ared": 11506, "shared_": 11507, "network_": 11508, "gain": 11509, "bold": 11510, "ATTR": 11511, "VIC": 11512, "quicksort": 11513, "napshot": 11514, "nat": 11515, "itle": 11516, "Mar": 11517, "mutable": 11518, "five": 11519, "MAX": 11520, "_command": 11521, "MPL": 11522, "skill": 11523, "_return_": 11524, "Execute": 11525, "frac": 11526, "combined": 11527, "cove": 11528, "Non": 11529, "gives": 11530, "WARNING": 11531, "metavar": 11532, "TIES": 11533, "stmt": 11534, "insertion": 11535, "Product": 11536, "INTER": 11537, "Section": 11538, "grades": 11539, "sky": 11540, "serializer": 11541, "optimal": 11542, "lect": 11543, "genome": 11544, "real_": 11545, "ordin": 11546, "unless": 11547, "f1": 11548, "Cmd": 11549, "install_": 11550, "Mix": 11551, "immediately": 11552, "fut": 11553, "_ut": 11554, "57": 11555, "dom": 11556, "default_value": 11557, "Center": 11558, "list_of_": 11559, "endpoints": 11560, "overflow": 11561, "minator": 11562, "Two": 11563, "shortest": 11564, "urations": 11565, "modes": 11566, "Yes": 11567, "Symbol": 11568, "Hy": 11569, "word2": 11570, "queeze": 11571, "canon": 11572, "arn": 11573, "posure": 11574, "inx": 11575, "Langu": 11576, "happen": 11577, "orter": 11578, "css": 11579, "functools": 11580, "83": 11581, "41": 11582, "tice": 11583, "clude": 11584, "recent": 11585, "commit_": 11586, "AWS": 11587, "DELET": 11588, "cur_": 11589, "_full": 11590, "FORMAT": 11591, "weighted": 11592, "launch": 11593, "87": 11594, "mechanism": 11595, "det": 11596, "Email": 11597, "idx_": 11598, "hide": 11599, "_F": 11600, "COMM": 11601, "Average": 11602, "pillar": 11603, "reci": 11604, "qubits": 11605, "number_of_": 11606, "declar": 11607, "long_": 11608, "compliance": 11609, "V1": 11610, "updated_": 11611, "nail": 11612, "finity": 11613, " \n ": 11614, "wants": 11615, "streams": 11616, "apache": 11617, "ABC": 11618, "topics": 11619, "minor": 11620, "VAR": 11621, "routes": 11622, "imeter": 11623, "CONT": 11624, "subtree": 11625, "reply_": 11626, "past": 11627, "dio": 11628, "dag": 11629, "s_per_": 11630, "merged_": 11631, "figsize": 11632, "_request_": 11633, "bution": 11634, "Proxy": 11635, "Draw": 11636, "u264": 11637, "occurred": 11638, "Json": 11639, "deque": 11640, "XXX": 11641, "wav": 11642, "diagonal": 11643, "_sequence": 11644, "Compare": 11645, "radians": 11646, "differences": 11647, "pressure": 11648, "params_": 11649, "isalpha": 11650, "globals": 11651, "UTF": 11652, "Util": 11653, "inp": 11654, "analyze": 11655, "IN_": 11656, "FIEL": 11657, "gc": 11658, "computation": 11659, "Em": 11660, "logical_": 11661, "transforms": 11662, "fib_": 11663, "critical": 11664, "upper_": 11665, "grou": 11666, "Security": 11667, "Float": 11668, "pq": 11669, "mentioned": 11670, "impl": 11671, "Mock": 11672, "2016": 11673, "wraps": 11674, "optimiz": 11675, "_regex": 11676, "atory": 11677, "extern": 11678, "mol": 11679, "comparing": 11680, "\r\n  ": 11681, "overall": 11682, "cities": 11683, "artist": 11684, "replace_": 11685, "authoriz": 11686, "xpath": 11687, "specimen": 11688, "doc__": 11689, "Keys": 11690, "observation": 11691, "Simple": 11692, "hexadecimal": 11693, "backward": 11694, "preview": 11695, "avg_": 11696, "_instance": 11697, "IST": 11698, "82": 11699, "describe": 11700, "is_config": 11701, "_file_": 11702, "Position": 11703, "Person": 11704, "Insert": 11705, "Atta": 11706, "h5": 11707, "eval_": 11708, "_extmethods": 11709, "tm": 11710, "nomi": 11711, "buckets": 11712, "suitable": 11713, "metic": 11714, "mal": 11715, "Plugin": 11716, "predic": 11717, "pil": 11718, "guid": 11719, "errno": 11720, "ING_": 11721, "rather": 11722, "generation": 11723, "alizing": 11724, "Interval": 11725, "zon": 11726, "ched_": 11727, "charge": 11728, "uint8": 11729, "trial": 11730, "pf": 11731, "_validate_": 11732, "_offset": 11733, "Used": 11734, "decimal_": 11735, "sublist": 11736, "reverse_": 11737, "offset_": 11738, "is_valid": 11739, "licenses": 11740, "regression": 11741, "flip": 11742, "_syn": 11743, "Items": 11744, "Func": 11745, "query_params": 11746, "popul": 11747, "imports": 11748, "combine": 11749, "vided": 11750, "cher": 11751, "previously": 11752, "most_": 11753, "deck": 11754, "cleaned_": 11755, "Glob": 11756, "silent": 11757, "alert": 11758, "_space": 11759, "secret_": 11760, "newline": 11761, "fli": 11762, "_source": 11763, "possib": 11764, "parsers": 11765, "attack": 11766, "\n                                                   ": 11767, "treat": 11768, "had": 11769, "IB": 11770, "53": 11771, "current_node": 11772, "_scores": 11773, "tailf": 11774, "confirm": 11775, "_of": 11776, "splitlines": 11777, "lb": 11778, "techniques": 11779, "h2": 11780, "end_date": 11781, "aler": 11782, "agent_": 11783, "vect": 11784, "Trace": 11785, "tific": 11786, "sess": 11787, "ing_module": 11788, "ial_": 11789, "squeeze": 11790, "shutdown": 11791, "pdb": 11792, "_graph": 11793, "transactions": 11794, "eries": 11795, "Assign": 11796, "reserved": 11797, "Public": 11798, "containers": 11799, "120": 11800, "looking": 11801, "cograph": 11802, "rat": 11803, "WARRAN": 11804, "solver": 11805, "mir": 11806, "silon": 11807, "vcf": 11808, "highest_": 11809, "MIB": 11810, "YANGDyn": 11811, "YANGDynClass": 11812, "Connect": 11813, "2015": 11814, "hashes": 11815, "Environ": 11816, "output_file": 11817, "shot": 11818, "doct": 11819, "Once": 11820, "Zero": 11821, "Attr": 11822, "numerical": 11823, "yang_type": 11824, "redirect_": 11825, "defining_module": 11826, "Role": 11827, "\n \n ": 11828, "_factory": 11829, "Callable": 11830, "up_": 11831, "a_i": 11832, "random_state": 11833, "mn": 11834, "STAR": 11835, "Root": 11836, "waiting": 11837, "similarity": 11838, "internal_": 11839, "register_paths": 11840, "PH": 11841, "Geo": 11842, "complement": 11843, "El": 11844, "pyplot": 11845, "mouse": 11846, "deci": 11847, "visu": 11848, "scene": 11849, "safe_": 11850, "bootstr": 11851, "basis": 11852, "_db": 11853, "Application": 11854, "roots": 11855, "SV": 11856, "Take": 11857, "Space": 11858, "_tag": 11859, "Therefore": 11860, "everything": 11861, "fs_": 11862, "deserialize": 11863, "strong": 11864, "ipv4": 11865, "abort": 11866, "__doc__": 11867, "ENSE": 11868, "mount_": 11869, "Database": 11870, "AI": 11871, "rupt": 11872, "_identifier": 11873, "SC": 11874, "uv": 11875, "sis_": 11876, "__future": 11877, "_PATH": 11878, "optimization": 11879, "confidence": 11880, "aging": 11881, "prefixes": 11882, "formatted_": 11883, "fft": 11884, "__future__": 11885, "_read_": 11886, "instrument": 11887, "ffer": 11888, "string_": 11889, "ceeded": 11890, "92": 11891, "inver": 11892, "assertRaises": 11893, "_lock": 11894, "phone_number": 11895, "Gra": 11896, "elen": 11897, "executor": 11898, "stim": 11899, "spark": 11900, "itter": 11901, "classmethod": 11902, "Verify": 11903, "compat": 11904, "_lines": 11905, "Track": 11906, "v3": 11907, "lette": 11908, "bp": 11909, "ent_id": 11910, "directed": 11911, "Configure": 11912, "photo": 11913, "hdr": 11914, "can_": 11915, "cam": 11916, "task_id": 11917, "converter": 11918, "tempfile": 11919, "ValidationError": 11920, "TEXT": 11921, "Language": 11922, "Apache": 11923, "emails": 11924, "attachment": 11925, "arrow": 11926, "transformation": 11927, "retry_": 11928, "fragment": 11929, "chunk_size": 11930, "Distri": 11931, "noun": 11932, "bt": 11933, "IMAG": 11934, "shard": 11935, "predicted": 11936, "matrix_": 11937, "ignoring": 11938, "Decode": 11939, "Title": 11940, "princip": 11941, "hrenheit": 11942, "direc": 11943, "heads": 11944, "bj": 11945, "l1": 11946, "_attr": 11947, "Virt": 11948, "physical": 11949, "mean_": 11950, "Files": 11951, "Called": 11952, "Generates": 11953, "\n                                                  ": 11954, "chedule": 11955, "Authentication": 11956, "192": 11957, "management": 11958, "confli": 11959, "mc": 11960, "compiler": 11961, "obs_": 11962, "cookies": 11963, "object_id": 11964, "b1": 11965, "Pi": 11966, "Modify": 11967, "theme": 11968, "nam": 11969, "NotFoundError": 11970, "Igno": 11971, "Calculates": 11972, "ordering": 11973, "compatibility": 11974, "NUM": 11975, "subnet": 11976, "sound": 11977, "markers": 11978, "call_": 11979, "months": 11980, "Raw": 11981, "CB": 11982, "READ": 11983, "Decimal": 11984, "rn": 11985, "applies": 11986, "Updates": 11987, "listdir": 11988, "feed_": 11989, "Ji": 11990, "AGE": 11991, "measurement": 11992, "3f": 11993, "lexicograph": 11994, "hashlib": 11995, "chrom": 11996, "COUN": 11997, "_col": 11998, "0x0": 11999, "m1": 12000, "circuit": 12001, "_cer": 12002, "Prefix": 12003, "AST": 12004, "refer": 12005, "titles": 12006, "tid": 12007, "handong": 12008, "Shandong": 12009, "Pla": 12010, "lename": 12011, "input_list": 12012, "word1": 12013, "ORD": 12014, "ADD": 12015, "lates": 12016, "dead": 12017, "expand_": 12018, "Environment": 12019, "i2": 12020, "Repe": 12021, "verbosity": 12022, "uan": 12023, "subjects": 12024, "itute": 12025, "invol": 12026, "arithmetic": 12027, "Cir": 12028, "related_": 12029, "exper": 12030, "alternative": 12031, "_lists": 12032, "panel": 12033, "middleware": 12034, "intermedi": 12035, "hed_": 12036, "tolist": 12037, "epsilon": 12038, "specifying": 12039, "med_": 12040, "mall": 12041, "_bi": 12042, "among": 12043, "PN": 12044, "upgrade": 12045, "stu": 12046, "Callback": 12047, "scaling": 12048, "ensemble": 12049, "token_": 12050, "63": 12051, "grp": 12052, "CK": 12053, "signals": 12054, "eigen": 12055, "care": 12056, "NAMES": 12057, "newlines": 12058, "hip": 12059, "ensity": 12060, "_split": 12061, "orange": 12062, "specifies": 12063, "frag": 12064, "anagrams": 12065, "Sure": 12066, "storage_": 12067, "players": 12068, "nb_": 12069, "ipeline": 12070, "BY": 12071, "127": 12072, "detected": 12073, "atives": 12074, "_user": 12075, "placed": 12076, "deleting": 12077, "Fix": 12078, "sorted_arr": 12079, "bing": 12080, "LICENSE": 12081, "gence": 12082, "_case": 12083, "TT": 12084, "fixed_": 12085, "covered": 12086, "unset": 12087, "episo": 12088, "wt": 12089, "orientation": 12090, "coefficient": 12091, "handled": 12092, "Detail": 12093, "questions": 12094, "acqui": 12095, "heat": 12096, "compose": 12097, "Memory": 12098, "y_pred": 12099, "significant": 12100, "m2": 12101, "stones": 12102, "cutoff": 12103, "volution": 12104, "glyph": 12105, "gid": 12106, "encrypt": 12107, "contained": 12108, "alphabetic": 12109, "veloc": 12110, "max_val": 12111, "_pos": 12112, "1D": 12113, "estimate": 12114, "coef": 12115, "AF": 12116, "_utype": 12117, "SY": 12118, "rength": 12119, "bucket_name": 12120, "cache_": 12121, "_blocks": 12122, "Driver": 12123, "tiles": 12124, "camera": 12125, "authorization": 12126, "_image": 12127, "respective": 12128, "created_": 12129, "Operator": 12130, "serialized": 12131, "Width": 12132, "Posi": 12133, "dividing": 12134, "themat": 12135, "Big": 12136, "formatting": 12137, "visibility": 12138, "interpolation": 12139, "correlation": 12140, "Offset": 12141, "purpose": 12142, "They": 12143, "mkdir": 12144, "La": 12145, "Hist": 12146, "Keyword": 12147, "_PRO": 12148, "Serializer": 12149, "groupby": 12150, "perimeter": 12151, "V_": 12152, "110": 12153, "Swap": 12154, "Mib": 12155, "Formatter": 12156, "pmag": 12157, "asy": 12158, "________": 12159, "Common": 12160, "_and": 12161, "Score": 12162, "Operations": 12163, "subplot": 12164, "signed_": 12165, "topology": 12166, "namespaces": 12167, "dropout": 12168, "_branch2": 12169, "_metadata": 12170, "DateTime": 12171, "Cy": 12172, "replic": 12173, "angular": 12174, "APP": 12175, "titem": 12176, "networks": 12177, "itation": 12178, "tives": 12179, "modul": 12180, "solutions": 12181, "pati": 12182, "Removes": 12183, "validation_": 12184, "bam": 12185, "alig": 12186, "floats": 12187, "f2": 12188, "erial": 12189, "determined": 12190, "TED": 12191, "Sol": 12192, "predicate": 12193, "PI": 12194, "NO_": 12195, "Fra": 12196, "cloud_": 12197, "tip": 12198, "lerance": 12199, "keep_": 12200, "explicitly": 12201, "Both": 12202, "y0": 12203, "Software": 12204, "Second": 12205, "Ang": 12206, "sql_": 12207, "_per_": 12208, "Gre": 12209, "timestamps": 12210, "kg": 12211, "encrypted": 12212, "minimize": 12213, "IGHT": 12214, "150": 12215, "elect": 12216, "continuous": 12217, "located": 12218, "Rate": 12219, "ArgumentParser": 12220, "wait_for_": 12221, "credential": 12222, "computes": 12223, "94": 12224, "arbitrary": 12225, "_data_only": 12226, "Factory": 12227, "Download": 12228, "ut_": 12229, "lowest": 12230, "FUN": 12231, "\n  \n  ": 12232, "splitext": 12233, "actual_": 12234, "Iterable": 12235, "chains": 12236, "_var": 12237, "LED": 12238, "limit_": 12239, "filtering": 12240, "composition": 12241, "Fig": 12242, "widgets": 12243, "wallet": 12244, "calculations": 12245, "68": 12246, "Virtual": 12247, "ners": 12248, "document_": 12249, "subject_": 12250, "login_": 12251, "http_data_only": 12252, "_return_http_data_only": 12253, "_query": 12254, "Scale": 12255, "xmin": 12256, "clients": 12257, "Popen": 12258, "GE": 12259, "plotting": 12260, "nonce": 12261, "accepted": 12262, "Timestamp": 12263, "iloc": 12264, "destin": 12265, "paper": 12266, "unexpected": 12267, "re_": 12268, "binding": 12269, "Don": 12270, "51": 12271, "tu": 12272, "lia": 12273, "Bucket": 12274, "val_": 12275, "inline": 12276, "percenti": 12277, "parses": 12278, "_list_": 12279, "scripts": 12280, "ech": 12281, "subtra": 12282, "nick": 12283, "computing": 12284, "HttpResponse": 12285, "wild": 12286, "private_key": 12287, "others": 12288, "gzip": 12289, "_custom": 12290, "Lock": 12291, "gen_": 12292, "bridge": 12293, "consistent": 12294, "_scal": 12295, "UNI": 12296, "subtype": 12297, "python3": 12298, "provision": 12299, "_handle": 12300, "Origin": 12301, "folders": 12302, "Pattern": 12303, "Buffer": 12304, "Rect": 12305, "Failure": 12306, "vote": 12307, "trust": 12308, "fontsize": 12309, "estimator": 12310, "x3": 12311, "read_csv": 12312, "ld_": 12313, "_replace": 12314, "sha256": 12315, "lay_": 12316, "astic": 12317, "4f": 12318, "providers": 12319, "stable": 12320, "parentheses": 12321, "_ip": 12322, "GTH": 12323, "things": 12324, "aux": 12325, "Domain": 12326, "Reads": 12327, "RETURN": 12328, "Eu": 12329, "listener": 12330, "get_name": 12331, "prot": 12332, "country_": 12333, "_flag": 12334, "ystem": 12335, "stamp": 12336, "Depth": 12337, "password_": 12338, "colour": 12339, "Parses": 12340, "Lat": 12341, "Component": 12342, "deco": 12343, "anagram": 12344, "FILE_": 12345, "divided": 12346, "Arti": 12347, "pre_": 12348, "overrides": 12349, "Attributes": 12350, "509": 12351, "customers": 12352, "FFFF": 12353, "Bound": 12354, "expan": 12355, "atively": 12356, "zones": 12357, "urlparse": 12358, "squared": 12359, "slic": 12360, "locator": 12361, "bound_": 12362, "abbre": 12363, "public_key": 12364, "bly": 12365, "LIST": 12366, "unused": 12367, "PR": 12368, "_is": 12369, "Area": 12370, "\n\n          ": 12371, "hits": 12372, "simulation": 12373, "organization": 12374, "bio": 12375, "bases": 12376, "Further": 12377, "456": 12378, "trade": 12379, "stats_": 12380, "normalization": 12381, "__version": 12382, "leaves": 12383, "cuda": 12384, "ND": 12385, "way_": 12386, "opt_": 12387, "nltk": 12388, "_pol": 12389, "tensors": 12390, "raster": 12391, "fallback": 12392, "exposure": 12393, "Distance": 12394, "n_samples": 12395, "reed": 12396, "simpl": 12397, "ino": 12398, "Layout": 12399, "istic": 12400, "buy": 12401, "module_": 12402, "inherit": 12403, "assert_equal": 12404, "U0001f9": 12405, "Internal": 12406, "stub": 12407, "Reader": 12408, "sca": 12409, "pep": 12410, "mgr": 12411, "assets": 12412, "u6d": 12413, "ptime": 12414, "helpers": 12415, "transcri": 12416, "oney": 12417, "firm": 12418, "CES": 12419, "whit": 12420, "TEST": 12421, "player_": 12422, "perfect": 12423, "derived": 12424, "assess": 12425, "loy": 12426, "LENGTH": 12427, "Dou": 12428, "Cat": 12429, "preserve": 12430, "instanti": 12431, "Syntax": 12432, "raise_": 12433, "normalized_": 12434, "nomial": 12435, "har": 12436, "entifi": 12437, "mole": 12438, "forecast": 12439, "CE_": 12440, "pat": 12441, "DESCRIP": 12442, "joint": 12443, "Generated": 12444, "Expression": 12445, "Dete": 12446, "nonzero": 12447, "mazon": 12448, "word_count": 12449, "RED": 12450, "OR_": 12451, "Enabled": 12452, "symp": 12453, "scrap": 12454, "_profile": 12455, "Math": 12456, "MB": 12457, "conditional": 12458, "62": 12459, "tmp_": 12460, "minus": 12461, "nest": 12462, "comment_": 12463, "stro": 12464, "outcome": 12465, "classify": 12466, "aws": 12467, "truth": 12468, "saving": 12469, "orizer": 12470, "1d": 12471, "se_": 12472, "oo": 12473, "ical_": 12474, "alt_": 12475, "Segment": 12476, "vocation": 12477, "leton": 12478, "counting": 12479, "sic": 12480, "chemy": 12481, "ABLE_": 12482, "resolver": 12483, "_arg": 12484, "Style": 12485, "ellow": 12486, "notify": 12487, "accel": 12488, "vail": 12489, "markdown": 12490, "pkg_": 12491, "mac_": 12492, "cumulative": 12493, "component_": 12494, "_make_": 12495, "Cer": 12496, "\r\n\r\n\r\n": 12497, "merge_": 12498, "charset": 12499, "route_values": 12500, "ggest": 12501, "MT": 12502, "oute": 12503, "mag_": 12504, "arri": 12505, "appended": 12506, "CHAR": 12507, "enable_": 12508, "_ratio": 12509, "prun": 12510, "ee": 12511, "shar": 12512, "May": 12513, "Complex": 12514, "BB": 12515, "fq": 12516, "Unless": 12517, "palette": 12518, "Loader": 12519, "ske": 12520, "opening": 12521, "2021": 12522, "vate": 12523, "unders": 12524, "exceeds": 12525, "decay": 12526, "ATION_": 12527, "sync_": 12528, "dry_": 12529, "ttl": 12530, "authenticate": 12531, "app_": 12532, "displays": 12533, "highlight": 12534, "comparisons": 12535, "additional_": 12536, "ME_": 12537, "II": 12538, "start_index": 12539, "sell": 12540, "cleanup": 12541, "_def": 12542, "Transaction": 12543, "Elements": 12544, "\r\n    \r\n    ": 12545, "Ids": 12546, "marked": 12547, "sph": 12548, "contract": 12549, "VO": 12550, "FIXME": 12551, "remove_duplicates": 12552, "directions": 12553, "devel": 12554, "add_option": 12555, "_nodes": 12556, "vp": 12557, "Reset": 12558, "Accept": 12559, "is_container": 12560, "device_id": 12561, "StringIO": 12562, "API_": 12563, "rx": 12564, "jid": 12565, "bag": 12566, "ventory": 12567, "_port": 12568, "__version__": 12569, "Mach": 12570, "199": 12571, "whe": 12572, "decoded": 12573, "Bot": 12574, "styles": 12575, "aws_": 12576, "ATE_": 12577, "order_by": 12578, "ns_": 12579, "_fd": 12580, "While": 12581, "Specify": 12582, "SK": 12583, "Classifier": 12584, "published": 12585, "policies": 12586, "mith": 12587, "Los": 12588, "temperatures": 12589, "robot": 12590, "acl": 12591, "Null": 12592, "perms": 12593, "ork": 12594, "depends": 12595, "deal": 12596, "limitations": 12597, "consonants": 12598, "Iteration": 12599, "registration": 12600, "material": 12601, "frozen": 12602, "111": 12603, "Multiple": 12604, "Avail": 12605, "Increment": 12606, "BytesIO": 12607, "Basic": 12608, "abstract": 12609, "Ga": 12610, "GRO": 12611, "exclude_": 12612, "atial": 12613, "say": 12614, "department": 12615, "High": 12616, "underlying": 12617, "traject": 12618, "sun": 12619, "kwarg": 12620, "fruits": 12621, "boundaries": 12622, "gies": 12623, "DFS": 12624, "Edge": 12625, "ENTI": 12626, "understand": 12627, "device_": 12628, "WARRANTIES": 12629, "sheet": 12630, "managed": 12631, "jav": 12632, "_run": 12633, "DELETE": 12634, "warm": 12635, "mathemat": 12636, "gover": 12637, "u7": 12638, "song": 12639, "predict_": 12640, "manually": 12641, "hop": 12642, "decision": 12643, "ACH": 12644, "swapped": 12645, "sorted_list": 12646, "ved_": 12647, "fan": 12648, "Attemp": 12649, "ATCH": 12650, "though": 12651, "sf": 12652, "interactive": 12653, "brown": 12654, "smooth": 12655, "continues": 12656, "virtual_": 12657, "lem": 12658, "_slice": 12659, "_sid": 12660, "_bytes": 12661, "Site": 12662, "velocity": 12663, "temp_": 12664, "win32": 12665, "connecting": 12666, "NU": 12667, "sqlite3": 12668, "optionally": 12669, "cls_": 12670, "ameter": 12671, "allele": 12672, "indicator": 12673, "wind": 12674, "strptime": 12675,
[...]
